{
  "version": "1.0",
  "truncation": {
    "direction": "Right",
    "max_length": 128,
    "strategy": "LongestFirst",
    "stride": 0
  },
  "padding": {
    "strategy": {
      "Fixed": 128
    },
    "direction": "Right",
    "pad_to_multiple_of": null,
    "pad_id": 1,
    "pad_type_id": 0,
    "pad_token": "<pad>"
  },
  "added_tokens": [
    {
      "id": 0,
      "content": "<unk>",
      "single_word": false,
      "lstrip": false,
      "rstrip": false,
      "normalized": false,
      "special": true
    },
    {
      "id": 1,
      "content": "<pad>",
      "single_word": false,
      "lstrip": false,
      "rstrip": false,
      "normalized": false,
      "special": true
    },
    {
      "id": 2,
      "content": "<s-en>",
      "single_word": false,
      "lstrip": false,
      "rstrip": false,
      "normalized": false,
      "special": true
    },
    {
      "id": 3,
      "content": "<s-hi>",
      "single_word": false,
      "lstrip": false,
      "rstrip": false,
      "normalized": false,
      "special": true
    },
    {
      "id": 4,
      "content": "<s-te>",
      "single_word": false,
      "lstrip": false,
      "rstrip": false,
      "normalized": false,
      "special": true
    },
    {
      "id": 5,
      "content": "</s>",
      "single_word": false,
      "lstrip": false,
      "rstrip": false,
      "normalized": false,
      "special": true
    }
  ],
  "normalizer": {
    "type": "Sequence",
    "normalizers": [
      {
        "type": "Lowercase"
      }
    ]
  },
  "pre_tokenizer": {
    "type": "Whitespace"
  },
  "post_processor": null,
  "decoder": {
    "type": "WordPiece",
    "prefix": "##",
    "cleanup": true
  },
  "model": {
    "type": "WordPiece",
    "unk_token": "<unk>",
    "continuing_subword_prefix": "##",
    "max_input_chars_per_word": 100,
    "vocab": {
      "<unk>": 0,
      "<pad>": 1,
      "<s-en>": 2,
      "<s-hi>": 3,
      "<s-te>": 4,
      "</s>": 5,
      "!": 6,
      "\"": 7,
      "#": 8,
      "$": 9,
      "%": 10,
      "&": 11,
      "'": 12,
      "(": 13,
      ")": 14,
      "*": 15,
      "+": 16,
      ",": 17,
      "-": 18,
      ".": 19,
      "/": 20,
      "0": 21,
      "1": 22,
      "2": 23,
      "3": 24,
      "4": 25,
      "5": 26,
      "6": 27,
      "7": 28,
      "8": 29,
      "9": 30,
      ":": 31,
      ";": 32,
      "<": 33,
      "=": 34,
      ">": 35,
      "?": 36,
      "@": 37,
      "[": 38,
      "\\": 39,
      "]": 40,
      "^": 41,
      "_": 42,
      "`": 43,
      "a": 44,
      "b": 45,
      "c": 46,
      "d": 47,
      "e": 48,
      "f": 49,
      "g": 50,
      "h": 51,
      "i": 52,
      "j": 53,
      "k": 54,
      "l": 55,
      "m": 56,
      "n": 57,
      "o": 58,
      "p": 59,
      "q": 60,
      "r": 61,
      "s": 62,
      "t": 63,
      "u": 64,
      "v": 65,
      "w": 66,
      "x": 67,
      "y": 68,
      "z": 69,
      "{": 70,
      "|": 71,
      "}": 72,
      "~": 73,
      "": 74,
      "": 75,
      "": 76,
      "": 77,
      "": 78,
      "": 79,
      "": 80,
      "¡": 81,
      "£": 82,
      "¤": 83,
      "§": 84,
      "¨": 85,
      "©": 86,
      "­": 87,
      "®": 88,
      "°": 89,
      "±": 90,
      "²": 91,
      "³": 92,
      "´": 93,
      "·": 94,
      "¹": 95,
      "º": 96,
      "¼": 97,
      "½": 98,
      "¾": 99,
      "×": 100,
      "ß": 101,
      "à": 102,
      "á": 103,
      "â": 104,
      "ã": 105,
      "ä": 106,
      "å": 107,
      "æ": 108,
      "ç": 109,
      "è": 110,
      "é": 111,
      "ë": 112,
      "ì": 113,
      "í": 114,
      "î": 115,
      "ï": 116,
      "ð": 117,
      "ñ": 118,
      "ò": 119,
      "ó": 120,
      "ô": 121,
      "õ": 122,
      "ö": 123,
      "÷": 124,
      "ø": 125,
      "ú": 126,
      "û": 127,
      "ü": 128,
      "ý": 129,
      "ā": 130,
      "ă": 131,
      "č": 132,
      "ē": 133,
      "ė": 134,
      "ę": 135,
      "ě": 136,
      "ğ": 137,
      "ī": 138,
      "ĭ": 139,
      "ı": 140,
      "ļ": 141,
      "ł": 142,
      "ń": 143,
      "ň": 144,
      "ō": 145,
      "ŏ": 146,
      "ő": 147,
      "œ": 148,
      "ř": 149,
      "ś": 150,
      "ş": 151,
      "š": 152,
      "ţ": 153,
      "ū": 154,
      "ŭ": 155,
      "ź": 156,
      "ż": 157,
      "ž": 158,
      "ơ": 159,
      "ư": 160,
      "˚": 161,
      "̇": 162,
      "α": 163,
      "β": 164,
      "θ": 165,
      "λ": 166,
      "μ": 167,
      "ν": 168,
      "π": 169,
      "φ": 170,
      "ω": 171,
      "а": 172,
      "в": 173,
      "д": 174,
      "е": 175,
      "й": 176,
      "н": 177,
      "о": 178,
      "п": 179,
      "р": 180,
      "ч": 181,
      "ئ": 182,
      "ا": 183,
      "ب": 184,
      "ت": 185,
      "ج": 186,
      "ح": 187,
      "د": 188,
      "ر": 189,
      "س": 190,
      "ش": 191,
      "ص": 192,
      "ط": 193,
      "ع": 194,
      "غ": 195,
      "ف": 196,
      "ق": 197,
      "ك": 198,
      "ل": 199,
      "م": 200,
      "ن": 201,
      "ه": 202,
      "و": 203,
      "ي": 204,
      "ँ": 205,
      "ं": 206,
      "ः": 207,
      "अ": 208,
      "आ": 209,
      "इ": 210,
      "ई": 211,
      "उ": 212,
      "ऊ": 213,
      "ऋ": 214,
      "ऌ": 215,
      "ऍ": 216,
      "ऎ": 217,
      "ए": 218,
      "ऐ": 219,
      "ऑ": 220,
      "ओ": 221,
      "औ": 222,
      "क": 223,
      "ख": 224,
      "ग": 225,
      "घ": 226,
      "ङ": 227,
      "च": 228,
      "छ": 229,
      "ज": 230,
      "झ": 231,
      "ञ": 232,
      "ट": 233,
      "ठ": 234,
      "ड": 235,
      "ढ": 236,
      "ण": 237,
      "त": 238,
      "थ": 239,
      "द": 240,
      "ध": 241,
      "न": 242,
      "ऩ": 243,
      "प": 244,
      "फ": 245,
      "ब": 246,
      "भ": 247,
      "म": 248,
      "य": 249,
      "र": 250,
      "ऱ": 251,
      "ल": 252,
      "ळ": 253,
      "ऴ": 254,
      "व": 255,
      "श": 256,
      "ष": 257,
      "स": 258,
      "ह": 259,
      "़": 260,
      "ा": 261,
      "ि": 262,
      "ी": 263,
      "ु": 264,
      "ू": 265,
      "ृ": 266,
      "ॅ": 267,
      "ॆ": 268,
      "े": 269,
      "ै": 270,
      "ॉ": 271,
      "ॊ": 272,
      "ो": 273,
      "ौ": 274,
      "्": 275,
      "क़": 276,
      "ख़": 277,
      "ग़": 278,
      "ज़": 279,
      "ड़": 280,
      "ढ़": 281,
      "फ़": 282,
      "य़": 283,
      "ॣ": 284,
      "।": 285,
      "॥": 286,
      "०": 287,
      "१": 288,
      "२": 289,
      "३": 290,
      "४": 291,
      "५": 292,
      "६": 293,
      "७": 294,
      "८": 295,
      "९": 296,
      "॰": 297,
      "ং": 298,
      "দ": 299,
      "ন": 300,
      "ব": 301,
      "ম": 302,
      "র": 303,
      "শ": 304,
      "স": 305,
      "া": 306,
      "ি": 307,
      "ো": 308,
      "ஆ": 309,
      "இ": 310,
      "உ": 311,
      "ச": 312,
      "ட": 313,
      "த": 314,
      "ந": 315,
      "ன": 316,
      "ப": 317,
      "ம": 318,
      "ய": 319,
      "ர": 320,
      "ல": 321,
      "வ": 322,
      "ா": 323,
      "ி": 324,
      "ீ": 325,
      "ு": 326,
      "ெ": 327,
      "ே": 328,
      "ை": 329,
      "்": 330,
      "ం": 331,
      "ః": 332,
      "అ": 333,
      "ఆ": 334,
      "ఇ": 335,
      "ఈ": 336,
      "ఉ": 337,
      "ఊ": 338,
      "ఋ": 339,
      "ఎ": 340,
      "ఏ": 341,
      "ఐ": 342,
      "ఒ": 343,
      "ఓ": 344,
      "ఔ": 345,
      "క": 346,
      "ఖ": 347,
      "గ": 348,
      "ఘ": 349,
      "చ": 350,
      "ఛ": 351,
      "జ": 352,
      "ఞ": 353,
      "ట": 354,
      "ఠ": 355,
      "డ": 356,
      "ఢ": 357,
      "ణ": 358,
      "త": 359,
      "థ": 360,
      "ద": 361,
      "ధ": 362,
      "న": 363,
      "ప": 364,
      "ఫ": 365,
      "బ": 366,
      "భ": 367,
      "మ": 368,
      "య": 369,
      "ర": 370,
      "ఱ": 371,
      "ల": 372,
      "ళ": 373,
      "వ": 374,
      "శ": 375,
      "ష": 376,
      "స": 377,
      "హ": 378,
      "ా": 379,
      "ి": 380,
      "ీ": 381,
      "ు": 382,
      "ూ": 383,
      "ృ": 384,
      "ె": 385,
      "ే": 386,
      "ై": 387,
      "ొ": 388,
      "ో": 389,
      "ౌ": 390,
      "్": 391,
      "ౖ": 392,
      "౦": 393,
      "౨": 394,
      "౩": 395,
      "ආ": 396,
      "ජ": 397,
      "බ": 398,
      "ය": 399,
      "ව": 400,
      "ා": 401,
      "ි": 402,
      "ු": 403,
      "ේ": 404,
      "ෝ": 405,
      "ạ": 406,
      "ầ": 407,
      "ễ": 408,
      "ệ": 409,
      "ị": 410,
      "ọ": 411,
      "ộ": 412,
      "ỳ": 413,
      "​": 414,
      "‌": 415,
      "‍": 416,
      "‎": 417,
      "–": 418,
      "—": 419,
      "‘": 420,
      "’": 421,
      "‚": 422,
      "“": 423,
      "”": 424,
      "‟": 425,
      "•": 426,
      "…": 427,
      "′": 428,
      "″": 429,
      "⁴": 430,
      "⁵": 431,
      "⁶": 432,
      "⁻": 433,
      "€": 434,
      "™": 435,
      "⅓": 436,
      "⅔": 437,
      "⅕": 438,
      "⅖": 439,
      "⅗": 440,
      "⅘": 441,
      "⅙": 442,
      "→": 443,
      "↲": 444,
      "∕": 445,
      "√": 446,
      "∣": 447,
      "≠": 448,
      "≤": 449,
      "≥": 450,
      "⌈": 451,
      "⌉": 452,
      "⌊": 453,
      "⌋": 454,
      "♪": 455,
      "♫": 456,
      "か": 457,
      "さ": 458,
      "な": 459,
      "に": 460,
      "の": 461,
      "ん": 462,
      "サ": 463,
      "ス": 464,
      "ッ": 465,
      "ト": 466,
      "プ": 467,
      "ラ": 468,
      "ル": 469,
      "ン": 470,
      "一": 471,
      "人": 472,
      "和": 473,
      "品": 474,
      "字": 475,
      "宇": 476,
      "材": 477,
      "束": 478,
      "治": 479,
      "漢": 480,
      "秒": 481,
      "逸": 482,
      "食": 483,
      "ﬁ": 484,
      "ﬂ": 485,
      "﻿": 486,
      "�": 487,
      "##ి": 488,
      "##7": 489,
      "##ि": 490,
      "##क": 491,
      "##ल": 492,
      "##े": 493,
      "##ो": 494,
      "##त": 495,
      "##ा": 496,
      "##ह": 497,
      "##न": 498,
      "##ै": 499,
      "##स": 500,
      "##ी": 501,
      "##ప": 502,
      "##్": 503,
      "##ర": 504,
      "##మ": 505,
      "##ే": 506,
      "##య": 507,
      "##ం": 508,
      "##m": 509,
      "##i": 510,
      "##t": 511,
      "##y": 512,
      "##a": 513,
      "##v": 514,
      "##l": 515,
      "##e": 516,
      "##j": 517,
      "##w": 518,
      "##n": 519,
      "##d": 520,
      "##u": 521,
      "##o": 522,
      "##s": 523,
      "##p": 524,
      "##c": 525,
      "##ज": 526,
      "##्": 527,
      "##द": 528,
      "##ु": 529,
      "##h": 530,
      "##ट": 531,
      "##ं": 532,
      "##र": 533,
      "##भ": 534,
      "##ग": 535,
      "##k": 536,
      "##प": 537,
      "##ए": 538,
      "##व": 539,
      "##ब": 540,
      "##ओ": 541,
      "##ठ": 542,
      "##ా": 543,
      "##ె": 544,
      "##ూ": 545,
      "##న": 546,
      "##è": 547,
      "##घ": 548,
      "##ई": 549,
      "##గ": 550,
      "##ో": 551,
      "##म": 552,
      "##z": 553,
      "##g": 554,
      "##x": 555,
      "##ू": 556,
      "##డ": 557,
      "##ట": 558,
      "##ల": 559,
      "##r": 560,
      "##b": 561,
      "##బ": 562,
      "##ణ": 563,
      "##य": 564,
      "##ö": 565,
      "##f": 566,
      "##फ": 567,
      "##ు": 568,
      "##ॉ": 569,
      "##उ": 570,
      "##ँ": 571,
      "##వ": 572,
      "##़": 573,
      "##ड": 574,
      "##భ": 575,
      "##జ": 576,
      "##చ": 577,
      "##_": 578,
      "##ష": 579,
      "##త": 580,
      "##अ": 581,
      "##इ": 582,
      "##ౖ": 583,
      "##ख": 584,
      "##క": 585,
      "##స": 586,
      "##ీ": 587,
      "##ौ": 588,
      "##फ़": 589,
      "##ద": 590,
      "##ొ": 591,
      "##q": 592,
      "##ख़": 593,
      "##ड़": 594,
      "##ज़": 595,
      "##थ": 596,
      "##ఆ": 597,
      "##1": 598,
      "##च": 599,
      "##छ": 600,
      "##ढ़": 601,
      "##ध": 602,
      "##3": 603,
      "##6": 604,
      "##0": 605,
      "##ృ": 606,
      "##झ": 607,
      "##ž": 608,
      "##ः": 609,
      "##2": 610,
      "##ధ": 611,
      "##ञ": 612,
      "##ण": 613,
      "##}": 614,
      "##[": 615,
      "##]": 616,
      "##౦": 617,
      "##౩": 618,
      "##ृ": 619,
      "##ॅ": 620,
      "##श": 621,
      "##థ": 622,
      "##ष": 623,
      "##é": 624,
      "##ఉ": 625,
      "##అ": 626,
      "##ై": 627,
      "##!": 628,
      "##.": 629,
      "##8": 630,
      "##9": 631,
      "##ऊ": 632,
      "##4": 633,
      "##హ": 634,
      "##5": 635,
      "##ú": 636,
      "##శ": 637,
      "##\\": 638,
      "##º": 639,
      "##ü": 640,
      "##ఫ": 641,
      "##ళ": 642,
      "##:": 643,
      "##,": 644,
      "##;": 645,
      "##…": 646,
      "##‍": 647,
      "##‌": 648,
      "##á": 649,
      "##ఖ": 650,
      "##आ": 651,
      "##)": 652,
      "##ॊ": 653,
      "##ॆ": 654,
      "##ౌ": 655,
      "##?": 656,
      "##”": 657,
      "##क़": 658,
      "##ఘ": 659,
      "##ग़": 660,
      "##ఇ": 661,
      "##ढ": 662,
      "##ğ": 663,
      "##०": 664,
      "##१": 665,
      "##\"": 666,
      "##ऑ": 667,
      "##/": 668,
      "##*": 669,
      "##(": 670,
      "###": 671,
      "##औ": 672,
      "##ë": 673,
      "##ऌ": 674,
      "##ఈ": 675,
      "##ā": 676,
      "##ñ": 677,
      "##ఎ": 678,
      "##ః": 679,
      "##š": 680,
      "##ã": 681,
      "##í": 682,
      "##-": 683,
      "##ç": 684,
      "##ï": 685,
      "##य़": 686,
      "##ل": 687,
      "##م": 688,
      "##س": 689,
      "##ا": 690,
      "##ح": 691,
      "##ه": 692,
      "##ఒ": 693,
      "##ı": 694,
      "##'": 695,
      "##ø": 696,
      "##æ": 697,
      "##ఏ": 698,
      "##ऎ": 699,
      "##ý": 700,
      "##<": 701,
      "##{": 702,
      "##ఐ": 703,
      "##ﬂ": 704,
      "##=": 705,
      "##%": 706,
      "##ă": 707,
      "##ν": 708,
      "##२": 709,
      "##": 710,
      "##६": 711,
      "##ł": 712,
      "##ó": 713,
      "##९": 714,
      "##~": 715,
      "##ऐ": 716,
      "##४": 717,
      "##â": 718,
      "##ī": 719,
      "##५": 720,
      "##​": 721,
      "##ఞ": 722,
      "##ఊ": 723,
      "##>": 724,
      "##+": 725,
      "##å": 726,
      "##♪": 727,
      "##ఠ": 728,
      "##": 729,
      "##ä": 730,
      "##ş": 731,
      "##७": 732,
      "##ð": 733,
      "##˚": 734,
      "##’": 735,
      "##८": 736,
      "##ऱ": 737,
      "##ఓ": 738,
      "##ఛ": 739,
      "##ễ": 740,
      "##×": 741,
      "##÷": 742,
      "##ń": 743,
      "##३": 744,
      "##`": 745,
      "##à": 746,
      "##⌈": 747,
      "##ெ": 748,
      "##ய": 749,
      "##்": 750,
      "##வ": 751,
      "##ே": 752,
      "##ா": 753,
      "##ம": 754,
      "##ū": 755,
      "##ư": 756,
      "##ŭ": 757,
      "##£": 758,
      "##$": 759,
      "##€": 760,
      "##秒": 761,
      "##に": 762,
      "##一": 763,
      "##人": 764,
      "##の": 765,
      "##逸": 766,
      "##材": 767,
      "##さ": 768,
      "##ん": 769,
      "##—": 770,
      "##": 771,
      "##û": 772,
      "##ऩ": 773,
      "##î": 774,
      "##@": 775,
      "##“": 776,
      "##ŏ": 777,
      "##^": 778,
      "##ź": 779,
      "##ì": 780,
      "##ය": 781,
      "##ි": 782,
      "##බ": 783,
      "##ෝ": 784,
      "##õ": 785,
      "##‘": 786,
      "##ఔ": 787,
      "##ô": 788,
      "##।": 789,
      "##♫": 790,
      "##ﬁ": 791,
      "##ఢ": 792,
      "##ب": 793,
      "##ر": 794,
      "##ò": 795,
      "##な": 796,
      "##": 797,
      "##ė": 798,
      "##ي": 799,
      "##ň": 800,
      "##ĭ": 801,
      "##ß": 802,
      "##ऋ": 803,
      "##ி": 804,
      "##ர": 805,
      "##ை": 806,
      "##ு": 807,
      "##ش": 808,
      "##ع": 809,
      "##ळ": 810,
      "##د": 811,
      "##ئ": 812,
      "##ේ": 813,
      "##ව": 814,
      "##ා": 815,
      "##&": 816,
      "##ţ": 817,
      "##ف": 818,
      "##ت": 819,
      "##و": 820,
      "##е": 821,
      "##р": 822,
      "##п": 823,
      "##а": 824,
      "##н": 825,
      "##о": 826,
      "##в": 827,
      "##ऴ": 828,
      "##č": 829,
      "##ō": 830,
      "##品": 831,
      "##サ": 832,
      "##ン": 833,
      "##プ": 834,
      "##ル": 835,
      "##ト": 836,
      "##ラ": 837,
      "##ッ": 838,
      "##ق": 839,
      "##œ": 840,
      "##ط": 841,
      "##ఱ": 842,
      "##̇": 843,
      "##ệ": 844,
      "##த": 845,
      "##ச": 846,
      "##ீ": 847,
      "##ன": 848,
      "##ப": 849,
      "##ட": 850,
      "##ỳ": 851,
      "##ந": 852,
      "##ọ": 853,
      "##ல": 854,
      "##ē": 855,
      "##ạ": 856,
      "##д": 857,
      "##й": 858,
      "##↲": 859,
      "##ॣ": 860,
      "##ङ": 861,
      "##ầ": 862,
      "##ج": 863,
      "##ę": 864,
      "##ك": 865,
      "##ن": 866,
      "##ż": 867,
      "##ě": 868,
      "##字": 869,
      "##ơ": 870,
      "##ļ": 871,
      "##ő": 872,
      "##ص": 873,
      "##غ": 874,
      "##ং": 875,
      "##ব": 876,
      "##া": 877,
      "##দ": 878,
      "##ộ": 879,
      "##¡": 880,
      "##治": 881,
      "##ř": 882,
      "##ු": 883,
      "##⌊": 884,
      "##ি": 885,
      "##র": 886,
      "##ো": 887,
      "##ন": 888,
      "##ম": 889,
      "##束": 890,
      "##ị": 891,
      "th": 892,
      "the": 893,
      "##er": 894,
      "##nd": 895,
      "##ou": 896,
      "है": 897,
      "##ें": 898,
      "##in": 899,
      "##at": 900,
      "##or": 901,
      "और": 902,
      "##ll": 903,
      "##en": 904,
      "and": 905,
      "##es": 906,
      "##ार": 907,
      "##ed": 908,
      "##on": 909,
      "##या": 910,
      "##ने": 911,
      "you": 912,
      "कर": 913,
      "##re": 914,
      "wh": 915,
      "##ों": 916,
      "to": 917,
      "कि": 918,
      "के": 919,
      "##is": 920,
      "##ुम": 921,
      "of": 922,
      "##ing": 923,
      "##ar": 924,
      "तुम": 925,
      "##th": 926,
      "##an": 927,
      "को": 928,
      "##ता": 929,
      "be": 930,
      "##om": 931,
      "##्र": 932,
      "से": 933,
      "उन": 934,
      "in": 935,
      "##ान": 936,
      "##ही": 937,
      "में": 938,
      "wi": 939,
      "उस": 940,
      "##ve": 941,
      "##ला": 942,
      "##ते": 943,
      "की": 944,
      "तो": 945,
      "##le": 946,
      "no": 947,
      "is": 948,
      "he": 949,
      "##se": 950,
      "##ोग": 951,
      "##ay": 952,
      "ha": 953,
      "##्ह": 954,
      "for": 955,
      "##हीं": 956,
      "##ना": 957,
      "##ow": 958,
      "re": 959,
      "all": 960,
      "हम": 961,
      "##st": 962,
      "पर": 963,
      "##ाल": 964,
      "##दा": 965,
      "##के": 966,
      "they": 967,
      "##ion": 968,
      "का": 969,
      "नहीं": 970,
      "हो": 971,
      "##्त": 972,
      "we": 973,
      "##id": 974,
      "##it": 975,
      "it": 976,
      "##ल्": 977,
      "जो": 978,
      "##र्": 979,
      "##ic": 980,
      "that": 981,
      "not": 982,
      "लोग": 983,
      "##ent": 984,
      "लि": 985,
      "##ut": 986,
      "them": 987,
      "##ver": 988,
      "हैं": 989,
      "जा": 990,
      "अप": 991,
      "on": 992,
      "##ur": 993,
      "##ah": 994,
      "##ir": 995,
      "##ly": 996,
      "who": 997,
      "वह": 998,
      "##im": 999,
      "##िर": 1000,
      "go": 1001,
      "##ig": 1002,
      "##al": 1003,
      "will": 1004,
      "##्य": 1005,
      "##से": 1006,
      "तुम्ह": 1007,
      "##ld": 1008,
      "दि": 1009,
      "sh": 1010,
      "रह": 1011,
      "##am": 1012,
      "जि": 1013,
      "##ce": 1014,
      "प्र": 1015,
      "do": 1016,
      "दे": 1017,
      "##का": 1018,
      "se": 1019,
      "##्या": 1020,
      "allah": 1021,
      "लिए": 1022,
      "pr": 1023,
      "##ess": 1024,
      "##ct": 1025,
      "##ie": 1026,
      "भी": 1027,
      "##ाह": 1028,
      "ही": 1029,
      "एक": 1030,
      "इस": 1031,
      "##ad": 1032,
      "are": 1033,
      "##ुदा": 1034,
      "##as": 1035,
      "##रा": 1036,
      "have": 1037,
      "कह": 1038,
      "##ारे": 1039,
      "कु": 1040,
      "fr": 1041,
      "##ड़": 1042,
      "with": 1043,
      "##ht": 1044,
      "an": 1045,
      "your": 1046,
      "ने": 1047,
      "नि": 1048,
      "##et": 1049,
      "मु": 1050,
      "##all": 1051,
      "##स्": 1052,
      "बा": 1053,
      "##गे": 1054,
      "##न्": 1055,
      "मै": 1056,
      "सा": 1057,
      "##की": 1058,
      "##op": 1059,
      "##ose": 1060,
      "##il": 1061,
      "as": 1062,
      "##ल्ला": 1063,
      "यह": 1064,
      "##गा": 1065,
      "##ch": 1066,
      "##ल्लाह": 1067,
      "from": 1068,
      "##ित": 1069,
      "their": 1070,
      "अल्लाह": 1071,
      "##वा": 1072,
      "##ge": 1073,
      "st": 1074,
      "अपने": 1075,
      "##क्": 1076,
      "him": 1077,
      "##ले": 1078,
      "##ord": 1079,
      "de": 1080,
      "su": 1081,
      "what": 1082,
      "##ers": 1083,
      "वे": 1084,
      "##..": 1085,
      "##मान": 1086,
      "मैं": 1087,
      "##ight": 1088,
      "this": 1089,
      "क्या": 1090,
      "sa": 1091,
      "com": 1092,
      "कुछ": 1093,
      "किया": 1094,
      "##ere": 1095,
      "##कि": 1096,
      "tr": 1097,
      "फिर": 1098,
      "##ain": 1099,
      "those": 1100,
      "##रे": 1101,
      "...": 1102,
      "##ter": 1103,
      "पा": 1104,
      "लोगों": 1105,
      "me": 1106,
      "but": 1107,
      "##ation": 1108,
      "ख़ुदा": 1109,
      "हु": 1110,
      "##री": 1111,
      "##नी": 1112,
      "so": 1113,
      "##को": 1114,
      "##lie": 1115,
      "मे": 1116,
      "##ke": 1117,
      "his": 1118,
      "god": 1119,
      "या": 1120,
      "##कार": 1121,
      "आप": 1122,
      "ये": 1123,
      "un": 1124,
      "##सा": 1125,
      "जब": 1126,
      "उनके": 1127,
      "##मा": 1128,
      "##ck": 1129,
      "##सी": 1130,
      "##if": 1131,
      "##कर": 1132,
      "##est": 1133,
      "##od": 1134,
      "##ाँ": 1135,
      "##ती": 1136,
      "there": 1137,
      "कोई": 1138,
      "सं": 1139,
      "##ould": 1140,
      "##ame": 1141,
      "ne": 1142,
      "दो": 1143,
      "करें": 1144,
      "##िया": 1145,
      "वा": 1146,
      "when": 1147,
      "##िक": 1148,
      "or": 1149,
      "##ul": 1150,
      "kn": 1151,
      "lord": 1152,
      "उन्ह": 1153,
      "##िय": 1154,
      "##में": 1155,
      "जिस": 1156,
      "##ेश": 1157,
      "ch": 1158,
      "पह": 1159,
      "ex": 1160,
      "##pt": 1161,
      "if": 1162,
      "##ab": 1163,
      "##दि": 1164,
      "know": 1165,
      "स्": 1166,
      "con": 1167,
      "##ment": 1168,
      "##ate": 1169,
      "सम": 1170,
      "##एँ": 1171,
      "ले": 1172,
      "##ूल": 1173,
      "तुम्हारे": 1174,
      "##ारी": 1175,
      "##ther": 1176,
      "##च्": 1177,
      "say": 1178,
      "lo": 1179,
      "करते": 1180,
      "dis": 1181,
      "##ard": 1182,
      "चाह": 1183,
      "us": 1184,
      "करने": 1185,
      "##ven": 1186,
      "pro": 1187,
      "then": 1188,
      "वि": 1189,
      "##ong": 1190,
      "##गर": 1191,
      "my": 1192,
      "उसके": 1193,
      "हमने": 1194,
      "रहे": 1195,
      "has": 1196,
      "रख": 1197,
      "फ़": 1198,
      "pe": 1199,
      "##un": 1200,
      "तर": 1201,
      "##ज़": 1202,
      "##ive": 1203,
      "##ore": 1204,
      "##ath": 1205,
      "##ol": 1206,
      "सब": 1207,
      "mo": 1208,
      "up": 1209,
      "##ant": 1210,
      "shall": 1211,
      "जान": 1212,
      "##and": 1213,
      "सक": 1214,
      "##श्": 1215,
      "said": 1216,
      "था": 1217,
      "belie": 1218,
      "ma": 1219,
      "ab": 1220,
      "##ome": 1221,
      "##ूँ": 1222,
      "##ich": 1223,
      "##वर": 1224,
      "##pe": 1225,
      "fi": 1226,
      "##िल": 1227,
      "##ारा": 1228,
      "दिया": 1229,
      "##ను": 1230,
      "उसे": 1231,
      "##us": 1232,
      "देख": 1233,
      "थे": 1234,
      "ईमान": 1235,
      "जिन": 1236,
      "करो": 1237,
      "##ीन": 1238,
      "बना": 1239,
      "##రు": 1240,
      "##art": 1241,
      "which": 1242,
      "##ust": 1243,
      "fa": 1244,
      "##वाल": 1245,
      "by": 1246,
      "peop": 1247,
      "ला": 1248,
      "रस": 1249,
      "##to": 1250,
      "##ुन": 1251,
      "उन्हें": 1252,
      "people": 1253,
      "बात": 1254,
      "can": 1255,
      "was": 1256,
      "रसूल": 1257,
      "en": 1258,
      "ना": 1259,
      "al": 1260,
      "am": 1261,
      "तुम्हें": 1262,
      "wor": 1263,
      "##्ट": 1264,
      "day": 1265,
      "##पर": 1266,
      "##स्त": 1267,
      "##be": 1268,
      "##ok": 1269,
      "साथ": 1270,
      "##pp": 1271,
      "##న్": 1272,
      "बह": 1273,
      "कहा": 1274,
      "मुझ": 1275,
      "man": 1276,
      "पू": 1277,
      "##ot": 1278,
      "अपनी": 1279,
      "mess": 1280,
      "##ri": 1281,
      "##age": 1282,
      "##one": 1283,
      "one": 1284,
      "##em": 1285,
      "##ast": 1286,
      "।\"": 1287,
      "पै": 1288,
      "##च्छ": 1289,
      "li": 1290,
      "अन": 1291,
      "जाए": 1292,
      "##न्द": 1293,
      "पास": 1294,
      "सि": 1295,
      "दिन": 1296,
      "br": 1297,
      "ye": 1298,
      "at": 1299,
      "fo": 1300,
      "our": 1301,
      "##ish": 1302,
      "##ंग": 1303,
      "होग": 1304,
      "##क्ष": 1305,
      "##चा": 1306,
      "ind": 1307,
      "##ist": 1308,
      "##ली": 1309,
      "bo": 1310,
      "##ra": 1311,
      "गया": 1312,
      "##urn": 1313,
      "##ves": 1314,
      "बे": 1315,
      "pl": 1316,
      "##ect": 1317,
      "##ाब": 1318,
      "अच्छ": 1319,
      "##ूर": 1320,
      "रहा": 1321,
      "were": 1322,
      "##um": 1323,
      "किसी": 1324,
      "##ity": 1325,
      "##ाइ": 1326,
      "##ति": 1327,
      "##own": 1328,
      "##क्त": 1329,
      "##ुत": 1330,
      "मुझे": 1331,
      "gu": 1332,
      "ear": 1333,
      "##ని": 1334,
      "##गार": 1335,
      "ad": 1336,
      "इन": 1337,
      "##ous": 1338,
      "##out": 1339,
      "le": 1340,
      "##्व": 1341,
      "##ुर": 1342,
      "##खा": 1343,
      "any": 1344,
      "##ियों": 1345,
      "##ది": 1346,
      "##reat": 1347,
      "##गी": 1348,
      "##ेज": 1349,
      "##eed": 1350,
      "ची": 1351,
      "##vers": 1352,
      "हूँ": 1353,
      "##ack": 1354,
      "##fore": 1355,
      "##ise": 1356,
      "##ort": 1357,
      "बु": 1358,
      "##ర్": 1359,
      "##ind": 1360,
      "మీ": 1361,
      "##ings": 1362,
      "वाल": 1363,
      "##ans": 1364,
      "##म्": 1365,
      "मि": 1366,
      "बद": 1367,
      "अगर": 1368,
      "##au": 1369,
      "##our": 1370,
      "##मत": 1371,
      "##बर": 1372,
      "रब": 1373,
      "तक": 1374,
      "right": 1375,
      "out": 1376,
      "tru": 1377,
      "##ाय": 1378,
      "fe": 1379,
      "उसकी": 1380,
      "##oug": 1381,
      "ता": 1382,
      "indeed": 1383,
      "had": 1384,
      "##క్": 1385,
      "rem": 1386,
      "##टा": 1387,
      "##ंद": 1388,
      "##ide": 1389,
      "sure": 1390,
      "##भी": 1391,
      "हर": 1392,
      "ever": 1393,
      "##ेंगे": 1394,
      "##os": 1395,
      "would": 1396,
      "af": 1397,
      "see": 1398,
      ".\"": 1399,
      "gr": 1400,
      "##స్": 1401,
      "##ag": 1402,
      "good": 1403,
      "हा": 1404,
      "मेरे": 1405,
      "some": 1406,
      "##ार्": 1407,
      "##देश": 1408,
      "##రి": 1409,
      "तरह": 1410,
      "यदि": 1411,
      "come": 1412,
      "करता": 1413,
      "##ever": 1414,
      "उनकी": 1415,
      "अत": 1416,
      "##ip": 1417,
      "##sel": 1418,
      "may": 1419,
      "##ign": 1420,
      "पहले": 1421,
      "did": 1422,
      "दी": 1423,
      "ar": 1424,
      "been": 1425,
      "ev": 1426,
      "##ूस": 1427,
      "##ak": 1428,
      "##oun": 1429,
      "चु": 1430,
      "काम": 1431,
      "परवर": 1432,
      "##ात": 1433,
      "परवरदि": 1434,
      "बहुत": 1435,
      "होगा": 1436,
      "##ance": 1437,
      "earth": 1438,
      "ओर": 1439,
      "वही": 1440,
      "##ful": 1441,
      "bl": 1442,
      "परवरदिगार": 1443,
      "##ानी": 1444,
      "##ोंने": 1445,
      "करे": 1446,
      "name": 1447,
      "only": 1448,
      "##िए": 1449,
      "##चे": 1450,
      "गु": 1451,
      "##thing": 1452,
      "##ष्ट": 1453,
      "##ाइल": 1454,
      "##ert": 1455,
      "down": 1456,
      "उसने": 1457,
      "cl": 1458,
      "##belie": 1459,
      "before": 1460,
      "ख़": 1461,
      "im": 1462,
      "మీరు": 1463,
      "ag": 1464,
      "हुए": 1465,
      "##ill": 1466,
      "##cc": 1467,
      "believe": 1468,
      "##्यों": 1469,
      "कार": 1470,
      "aw": 1471,
      "##बा": 1472,
      "##यत": 1473,
      "##ving": 1474,
      "##दार": 1475,
      "##ound": 1476,
      "##able": 1477,
      "##श्च": 1478,
      "like": 1479,
      "##ade": 1480,
      "##फ़": 1481,
      "##नों": 1482,
      "##eng": 1483,
      "क़": 1484,
      "##ure": 1485,
      "##न्त": 1486,
      "दिखा": 1487,
      "सी": 1488,
      "ver": 1489,
      "##్ర": 1490,
      "does": 1491,
      "surely": 1492,
      "हमारे": 1493,
      "##ved": 1494,
      "##ase": 1495,
      "सू": 1496,
      "##पा": 1497,
      "##ach": 1498,
      "here": 1499,
      "रो": 1500,
      "##కు": 1501,
      "##ड़ा": 1502,
      "##ud": 1503,
      "wr": 1504,
      "##el": 1505,
      "##ंड": 1506,
      "##qu": 1507,
      "##ies": 1508,
      "पहु": 1509,
      "upon": 1510,
      "##ाम": 1511,
      "##లు": 1512,
      "बस": 1513,
      "##त्र": 1514,
      "##्ञ": 1515,
      "##मी": 1516,
      "##ount": 1517,
      "how": 1518,
      "te": 1519,
      "##ace": 1520,
      "cont": 1521,
      "##we": 1522,
      "ताकि": 1523,
      "बड़": 1524,
      "over": 1525,
      "छो": 1526,
      "sp": 1527,
      "comm": 1528,
      "##cept": 1529,
      "सु": 1530,
      "res": 1531,
      "than": 1532,
      "क्यों": 1533,
      "##ime": 1534,
      "sign": 1535,
      "##ताब": 1536,
      "अब": 1537,
      "हुआ": 1538,
      "उनसे": 1539,
      "निक": 1540,
      "forg": 1541,
      "##ave": 1542,
      "about": 1543,
      "##त्": 1544,
      "रू": 1545,
      "నే": 1546,
      "##ిం": 1547,
      "bec": 1548,
      "##ाना": 1549,
      "##ine": 1550,
      "##ाप": 1551,
      "क्": 1552,
      "भेज": 1553,
      "##ily": 1554,
      "##ीक": 1555,
      "निश्च": 1556,
      "##so": 1557,
      "##lect": 1558,
      "unto": 1559,
      "again": 1560,
      "अज़": 1561,
      "पैदा": 1562,
      "sent": 1563,
      "##ake": 1564,
      "నేను": 1565,
      "उसी": 1566,
      "should": 1567,
      "##ोल": 1568,
      "made": 1569,
      "bet": 1570,
      "nor": 1571,
      "##ption": 1572,
      "##ass": 1573,
      "##ढ़": 1574,
      "co": 1575,
      "every": 1576,
      "हों": 1577,
      "back": 1578,
      "##ूद": 1579,
      "उप": 1580,
      "##मे": 1581,
      "##దు": 1582,
      "##ry": 1583,
      "),": 1584,
      "sc": 1585,
      "##क़": 1586,
      "rec": 1587,
      "spe": 1588,
      "##ink": 1589,
      "##ause": 1590,
      "सह": 1591,
      "वाला": 1592,
      "##ward": 1593,
      "तुम्हारी": 1594,
      "मो": 1595,
      "hea": 1596,
      "##ice": 1597,
      "##शन": 1598,
      "##द्": 1599,
      "यहाँ": 1600,
      "##erc": 1601,
      "turn": 1602,
      "पहुँ": 1603,
      "among": 1604,
      "##pl": 1605,
      "पी": 1606,
      "##sh": 1607,
      "सकता": 1608,
      "फ़ाइल": 1609,
      "समझ": 1610,
      "उन्होंने": 1611,
      "सकते": 1612,
      "truth": 1613,
      "messeng": 1614,
      "##तर": 1615,
      "लिया": 1616,
      "des": 1617,
      "whom": 1618,
      "##nder": 1619,
      "चल": 1620,
      "##तना": 1621,
      "##ted": 1622,
      "अनु": 1623,
      "जाएँ": 1624,
      "call": 1625,
      "उनको": 1626,
      "get": 1627,
      "##ట్": 1628,
      "खु": 1629,
      "किताब": 1630,
      "##llow": 1631,
      "per": 1632,
      ").": 1633,
      "comp": 1634,
      "##न्न": 1635,
      "बाद": 1636,
      "नाम": 1637,
      "उसका": 1638,
      "##हर": 1639,
      "could": 1640,
      "गए": 1641,
      "अध": 1642,
      "अज़ाब": 1643,
      "##iz": 1644,
      "##ियाँ": 1645,
      "थी": 1646,
      "बि": 1647,
      "ser": 1648,
      "अव": 1649,
      "##्स": 1650,
      "make": 1651,
      "हि": 1652,
      "दूस": 1653,
      "##ber": 1654,
      "##िश": 1655,
      "माल": 1656,
      "##नेवाल": 1657,
      "##ject": 1658,
      "खुदा": 1659,
      "##ress": 1660,
      "##న్న": 1661,
      "book": 1662,
      "##ness": 1663,
      "disbelie": 1664,
      "जह": 1665,
      "##क्र": 1666,
      "where": 1667,
      "##ro": 1668,
      "let": 1669,
      "new": 1670,
      "जाओ": 1671,
      "after": 1672,
      "##ोल्": 1673,
      "लो": 1674,
      "##टे": 1675,
      "pre": 1676,
      "trans": 1677,
      "want": 1678,
      "##are": 1679,
      "संदेश": 1680,
      "most": 1681,
      "file": 1682,
      "करना": 1683,
      "merc": 1684,
      "डर": 1685,
      "##ile": 1686,
      "##ड़े": 1687,
      "fear": 1688,
      "just": 1689,
      "set": 1690,
      "मौ": 1691,
      "साम": 1692,
      "##ction": 1693,
      "सर": 1694,
      "##वि": 1695,
      "ऐसे": 1696,
      "time": 1697,
      "उससे": 1698,
      "##ble": 1699,
      "##ree": 1700,
      "तुम्हारा": 1701,
      "खा": 1702,
      "##ied": 1703,
      "heaven": 1704,
      "ple": 1705,
      "give": 1706,
      "need": 1707,
      "पु": 1708,
      "way": 1709,
      "वाले": 1710,
      "show": 1711,
      "सूच": 1712,
      "मेरी": 1713,
      "डाल": 1714,
      "gi": 1715,
      "other": 1716,
      "##ము": 1717,
      "ज़": 1718,
      "tw": 1719,
      "##డి": 1720,
      "तरफ": 1721,
      "##बी": 1722,
      "जाएगा": 1723,
      "##ue": 1724,
      "she": 1725,
      "अच्छा": 1726,
      "##ठा": 1727,
      "creat": 1728,
      "##pen": 1729,
      "याद": 1730,
      "##मीन": 1731,
      "तू": 1732,
      "?\"": 1733,
      "मार्": 1734,
      "बेश": 1735,
      "pun": 1736,
      "men": 1737,
      "##ेह": 1738,
      "सिवा": 1739,
      "डा": 1740,
      "add": 1741,
      "जी": 1742,
      "##डर": 1743,
      "उनमें": 1744,
      "##ite": 1745,
      "बी": 1746,
      "app": 1747,
      "thou": 1748,
      "follow": 1749,
      "select": 1750,
      "##ith": 1751,
      "##शी": 1752,
      "##ough": 1753,
      "##ap": 1754,
      "##led": 1755,
      "बेशक": 1756,
      "##ep": 1757,
      "##nds": 1758,
      "away": 1759,
      "##वी": 1760,
      "भा": 1761,
      "punish": 1762,
      "##selves": 1763,
      "मू": 1764,
      "ke": 1765,
      "ठीक": 1766,
      "take": 1767,
      "##fer": 1768,
      "don": 1769,
      "di": 1770,
      "##काश": 1771,
      "निश्चय": 1772,
      "prop": 1773,
      "बै": 1774,
      "स्थ": 1775,
      "lif": 1776,
      "her": 1777,
      "##00": 1778,
      "##te": 1779,
      "दु": 1780,
      "##lation": 1781,
      "चीज़": 1782,
      "##wn": 1783,
      "बन्द": 1784,
      "दोनों": 1785,
      "झु": 1786,
      "ret": 1787,
      "आस": 1788,
      "दिल": 1789,
      "मार्ग": 1790,
      "ज़मीन": 1791,
      "verily": 1792,
      "##क्ति": 1793,
      "acc": 1794,
      "mu": 1795,
      "now": 1796,
      "except": 1797,
      "##ప్": 1798,
      "##oin": 1799,
      "ऐसा": 1800,
      "तुमसे": 1801,
      "##वाला": 1802,
      "into": 1803,
      "##ac": 1804,
      "cle": 1805,
      "list": 1806,
      "##ज्ञ": 1807,
      "##ड़ी": 1808,
      "cert": 1809,
      "##ence": 1810,
      "##ज़ा": 1811,
      "##డు": 1812,
      "##ల్": 1813,
      "##ంది": 1814,
      "life": 1815,
      "reve": 1816,
      "##other": 1817,
      "option": 1818,
      "रूप": 1819,
      "मा": 1820,
      "hel": 1821,
      "ask": 1822,
      "आद": 1823,
      "##ning": 1824,
      "against": 1825,
      "##ory": 1826,
      "मगर": 1827,
      "ख़ुदा": 1828,
      "कै": 1829,
      "##संद": 1830,
      "##योग": 1831,
      "क्ष": 1832,
      "सुन": 1833,
      "समय": 1834,
      "ज़र": 1835,
      "qu": 1836,
      "यही": 1837,
      "किए": 1838,
      "##ख़": 1839,
      "##ail": 1840,
      "evil": 1841,
      "war": 1842,
      "##िका": 1843,
      "##ोज": 1844,
      "guid": 1845,
      "part": 1846,
      "दर": 1847,
      "##रती": 1848,
      "##ost": 1849,
      "लग": 1850,
      "इनकार": 1851,
      "अपना": 1852,
      "##ంట": 1853,
      "##त्य": 1854,
      "##name": 1855,
      "fold": 1856,
      "heart": 1857,
      "##ks": 1858,
      "##ild": 1859,
      "fl": 1860,
      "मान": 1861,
      "##ang": 1862,
      "##ally": 1863,
      "चाहता": 1864,
      "help": 1865,
      "धरती": 1866,
      "inf": 1867,
      "रा": 1868,
      "जै": 1869,
      "दा": 1870,
      "wrong": 1871,
      "##తు": 1872,
      "उनका": 1873,
      "these": 1874,
      "हमारी": 1875,
      "निर्": 1876,
      "##ug": 1877,
      "message": 1878,
      "पता": 1879,
      "sin": 1880,
      "well": 1881,
      "##ब्": 1882,
      "इसमें": 1883,
      "उसमें": 1884,
      "व्य": 1885,
      "fu": 1886,
      "rep": 1887,
      "##ेर": 1888,
      "यक़": 1889,
      "##ौम": 1890,
      "हाल": 1891,
      "its": 1892,
      "##్య": 1893,
      "##orm": 1894,
      "##ये": 1895,
      "mar": 1896,
      "##ls": 1897,
      "परि": 1898,
      "तुमने": 1899,
      "चीज़": 1900,
      "##िन": 1901,
      "world": 1902,
      "two": 1903,
      "##न्तु": 1904,
      "##ुनिया": 1905,
      "##िम": 1906,
      "##ोल्डर": 1907,
      "मिल": 1908,
      "उत": 1909,
      "कहते": 1910,
      "##af": 1911,
      "##ought": 1912,
      "जानता": 1913,
      "##act": 1914,
      "##ult": 1915,
      "लगा": 1916,
      "##स्ते": 1917,
      "heavens": 1918,
      "##ient": 1919,
      "हुई": 1920,
      "##दी": 1921,
      "even": 1922,
      "er": 1923,
      "##ather": 1924,
      "##xt": 1925,
      "##ड़े": 1926,
      "चाहते": 1927,
      "हमें": 1928,
      "dr": 1929,
      "देता": 1930,
      "str": 1931,
      "घर": 1932,
      "##str": 1933,
      "##ror": 1934,
      "punishment": 1935,
      "दुनिया": 1936,
      "##जी": 1937,
      "##्री": 1938,
      "command": 1939,
      "##ुल": 1940,
      "##स्ता": 1941,
      "यातना": 1942,
      "बाह": 1943,
      "जिन्ह": 1944,
      "might": 1945,
      "things": 1946,
      "##ated": 1947,
      ".”": 1948,
      "##ious": 1949,
      "##दान": 1950,
      "##ख्त": 1951,
      "##ars": 1952,
      "##ुट": 1953,
      "believers": 1954,
      "##ship": 1955,
      "लगे": 1956,
      "बल्": 1957,
      "##పు": 1958,
      "##ठला": 1959,
      "निश": 1960,
      "##ओं": 1961,
      "मूसा": 1962,
      "fire": 1963,
      "signs": 1964,
      "open": 1965,
      "great": 1966,
      "गिर": 1967,
      "##ens": 1968,
      "बल्कि": 1969,
      "जिसने": 1970,
      "##दर्": 1971,
      "##टर": 1972,
      "కా": 1973,
      "##ages": 1974,
      "आए": 1975,
      "em": 1976,
      "##ick": 1977,
      "messenger": 1978,
      "आयत": 1979,
      "जाता": 1980,
      "##वालों": 1981,
      "##जा": 1982,
      "##not": 1983,
      "find": 1984,
      "मद": 1985,
      "off": 1986,
      "होंगे": 1987,
      "##टी": 1988,
      "झुठला": 1989,
      "cre": 1990,
      "स्व": 1991,
      "clear": 1992,
      "more": 1993,
      "created": 1994,
      "##ia": 1995,
      "##गें": 1996,
      "आग": 1997,
      "##ूं": 1998,
      "तुमको": 1999,
      "फ़ोल्डर": 2000,
      "दूसरे": 2001,
      "given": 2002,
      "नी": 2003,
      "##గా": 2004,
      "अं": 2005,
      "fil": 2006,
      "करेगा": 2007,
      "अतः": 2008,
      "ap": 2009,
      "##క్క": 2010,
      "look": 2011,
      "जिसे": 2012,
      "##लग": 2013,
      "##शा": 2014,
      "because": 2015,
      "निस्": 2016,
      "never": 2017,
      "forgi": 2018,
      "##ूब": 2019,
      "##र्थ": 2020,
      "##ై": 2021,
      "हुक्": 2022,
      "faith": 2023,
      "वक्त": 2024,
      "मह": 2025,
      "लाए": 2026,
      "आया": 2027,
      "best": 2028,
      "error": 2029,
      "मेरा": 2030,
      "उसको": 2031,
      "wom": 2032,
      "##ft": 2033,
      "मर": 2034,
      "##లి": 2035,
      "'%": 2036,
      "ph": 2037,
      "ca": 2038,
      "##नाह": 2039,
      "इसके": 2040,
      "den": 2041,
      "##तान": 2042,
      "sec": 2043,
      "पि": 2044,
      "##old": 2045,
      "came": 2046,
      "होता": 2047,
      "fir": 2048,
      "##भा": 2049,
      "##द्ध": 2050,
      "certain": 2051,
      "cur": 2052,
      "चाहिए": 2053,
      "return": 2054,
      "बारे": 2055,
      "##న్నా": 2056,
      "बर": 2057,
      "cannot": 2058,
      "बार": 2059,
      "##्रे": 2060,
      "##हा": 2061,
      "##lic": 2062,
      "आसमान": 2063,
      "हुक्म": 2064,
      "बड़ा": 2065,
      "while": 2066,
      "##ूम": 2067,
      "बुरा": 2068,
      "बेह": 2069,
      "##iss": 2070,
      "##िस": 2071,
      "मौज": 2072,
      "पीछ": 2073,
      "राह": 2074,
      "sub": 2075,
      "నా": 2076,
      "##ting": 2077,
      "folder": 2078,
      "##र्क": 2079,
      "par": 2080,
      "##्म": 2081,
      "ll": 2082,
      "thee": 2083,
      "please": 2084,
      "##ంచ": 2085,
      "##amm": 2086,
      "bring": 2087,
      "कम": 2088,
      "सामने": 2089,
      "अधिक": 2090,
      "##किन": 2091,
      "किन्तु": 2092,
      "##िप": 2093,
      "अच्छे": 2094,
      "wat": 2095,
      "deed": 2096,
      "वास्ते": 2097,
      "##र्द": 2098,
      "##read": 2099,
      "कहने": 2100,
      "##tle": 2101,
      "ఒక": 2102,
      "डि": 2103,
      "under": 2104,
      "hell": 2105,
      "सभी": 2106,
      "kg": 2107,
      "##ph": 2108,
      "inv": 2109,
      "remem": 2110,
      "##श्य": 2111,
      "बो": 2112,
      "फर": 2113,
      "gl": 2114,
      "रात": 2115,
      "##ween": 2116,
      "आकाश": 2117,
      "##ove": 2118,
      "between": 2119,
      "hearts": 2120,
      "think": 2121,
      "dec": 2122,
      "##ाप्त": 2123,
      "##ions": 2124,
      "save": 2125,
      "thr": 2126,
      "##ors": 2127,
      "द्व": 2128,
      "##डी": 2129,
      "बैठ": 2130,
      "गई": 2131,
      "वहाँ": 2132,
      "बता": 2133,
      "kgm": 2134,
      "कृ": 2135,
      "pass": 2136,
      "लेकिन": 2137,
      "##gr": 2138,
      "##ाली": 2139,
      "enter": 2140,
      "prom": 2141,
      "##iew": 2142,
      "सर्": 2143,
      "ro": 2144,
      "जानते": 2145,
      "used": 2146,
      "कौ": 2147,
      "##ौर": 2148,
      "खोल": 2149,
      "माँ": 2150,
      "##स्थ": 2151,
      "कभी": 2152,
      "got": 2153,
      "##self": 2154,
      "\"%": 2155,
      "mos": 2156,
      "##ोर": 2157,
      "##ज़िल": 2158,
      "##राही": 2159,
      "##फल": 2160,
      "why": 2161,
      "such": 2162,
      "##ष्": 2163,
      "own": 2164,
      "beh": 2165,
      "प्राप्त": 2166,
      "):": 2167,
      "##ेल": 2168,
      "##ोगे": 2169,
      "wind": 2170,
      "use": 2171,
      "##ary": 2172,
      "pray": 2173,
      "proph": 2174,
      "##hamm": 2175,
      "##्श": 2176,
      "हाथ": 2177,
      "यक़ीन": 2178,
      "send": 2179,
      "##యు": 2180,
      "रही": 2181,
      "##thers": 2182,
      "conf": 2183,
      "बदला": 2184,
      "##iful": 2185,
      "कार्य": 2186,
      "ob": 2187,
      "bel": 2188,
      "##ces": 2189,
      "जहन्न": 2190,
      "inc": 2191,
      "पूछ": 2192,
      "##ff": 2193,
      "नाज़िल": 2194,
      "सूची": 2195,
      "##वार": 2196,
      "होने": 2197,
      "ve": 2198,
      "--": 2199,
      "rel": 2200,
      "सारे": 2201,
      "मार": 2202,
      "deeds": 2203,
      "अस": 2204,
      "##యి": 2205,
      "कौन": 2206,
      "##les": 2207,
      "themselves": 2208,
      "##ian": 2209,
      "night": 2210,
      "पीछे": 2211,
      "गुनाह": 2212,
      "##वान": 2213,
      "उठा": 2214,
      "क्योंकि": 2215,
      "ప్ర": 2216,
      "worship": 2217,
      "##ty": 2218,
      "देते": 2219,
      "##ower": 2220,
      "##र्फ": 2221,
      "##ండి": 2222,
      "##वे": 2223,
      "मदद": 2224,
      "निस्संद": 2225,
      "##ैर": 2226,
      "another": 2227,
      "##ations": 2228,
      "sl": 2229,
      "निस्संदेह": 2230,
      "जीव": 2231,
      "चुन": 2232,
      "##ait": 2233,
      "हाँ": 2234,
      "बनाया": 2235,
      "cr": 2236,
      "##ons": 2237,
      "##ition": 2238,
      "##िंग": 2239,
      "col": 2240,
      "##na": 2241,
      "##यामत": 2242,
      "prophet": 2243,
      "tell": 2244,
      "जाने": 2245,
      "बाहर": 2246,
      "##eth": 2247,
      "mercy": 2248,
      "##दे": 2249,
      "प्रति": 2250,
      "आख़": 2251,
      "prov": 2252,
      "child": 2253,
      "reward": 2254,
      "##कारी": 2255,
      "def": 2256,
      "jud": 2257,
      "ते": 2258,
      "##ledge": 2259,
      "work": 2260,
      "सच्": 2261,
      "##यन": 2262,
      "##ించ": 2263,
      "रखते": 2264,
      "dest": 2265,
      "##जे": 2266,
      "##ode": 2267,
      "इसे": 2268,
      "##aug": 2269,
      "certainly": 2270,
      "दया": 2271,
      "लौ": 2272,
      "##वाले": 2273,
      "भर": 2274,
      "##लो": 2275,
      "##og": 2276,
      "##igh": 2277,
      "##den": 2278,
      "supp": 2279,
      "knowledge": 2280,
      "##ific": 2281,
      "देगा": 2282,
      "##ised": 2283,
      "प्रकार": 2284,
      "झू": 2285,
      "##ड़ा": 2286,
      "##rect": 2287,
      "क़यामत": 2288,
      "optional": 2289,
      "##ably": 2290,
      "##ंच": 2291,
      "##per": 2292,
      "स्त": 2293,
      "##కి": 2294,
      "path": 2295,
      "చే": 2296,
      "किस": 2297,
      "##ub": 2298,
      "unt": 2299,
      "##ci": 2300,
      "##लत": 2301,
      "क्षमा": 2302,
      "reveal": 2303,
      "##ts": 2304,
      "##र्ण": 2305,
      "सिर्फ": 2306,
      "द्वारा": 2307,
      "act": 2308,
      "पैग़": 2309,
      "रहो": 2310,
      "dev": 2311,
      "att": 2312,
      "##ूत": 2313,
      "id": 2314,
      "##हरा": 2315,
      "sou": 2316,
      "##ren": 2317,
      "##सार": 2318,
      "moses": 2319,
      "वालों": 2320,
      "##यी": 2321,
      "##ां": 2322,
      "hear": 2323,
      "लिख": 2324,
      "word": 2325,
      "knows": 2326,
      "##िज़": 2327,
      "##ुष": 2328,
      "tor": 2329,
      "उनपर": 2330,
      "muhamm": 2331,
      "muhammad": 2332,
      "ज़ि": 2333,
      "होगी": 2334,
      "remember": 2335,
      "तब": 2336,
      "प्रदान": 2337,
      "##र्ष": 2338,
      "चुके": 2339,
      "गुम": 2340,
      "##aw": 2341,
      "place": 2342,
      "##सर": 2343,
      "भला": 2344,
      "##स्ट": 2345,
      "बदल": 2346,
      "बन": 2347,
      "इससे": 2348,
      "पहुँचा": 2349,
      "पूरा": 2350,
      "आगे": 2351,
      "##ange": 2352,
      "चाहे": 2353,
      "छोड़": 2354,
      "hath": 2355,
      "पानी": 2356,
      "##of": 2357,
      "मत": 2358,
      "ed": 2359,
      "बाप": 2360,
      "##म्बर": 2361,
      "translation": 2362,
      "##ify": 2363,
      "जाएँगे": 2364,
      "better": 2365,
      "##ants": 2366,
      "##ल्म": 2367,
      "स्प": 2368,
      "तौ": 2369,
      "disc": 2370,
      "आदमी": 2371,
      "##ob": 2372,
      "निशान": 2373,
      "window": 2374,
      "until": 2375,
      "లే": 2376,
      "pres": 2377,
      "जग": 2378,
      "पहुँच": 2379,
      "end": 2380,
      "##eous": 2381,
      "yet": 2382,
      "##ither": 2383,
      "keep": 2384,
      "prob": 2385,
      "start": 2386,
      "##ood": 2387,
      "thy": 2388,
      "##లా": 2389,
      "##erm": 2390,
      "शै": 2391,
      "##li": 2392,
      "ac": 2393,
      "यक़ीनन": 2394,
      "##ize": 2395,
      "शु": 2396,
      "नीचे": 2397,
      "##र्म": 2398,
      "बढ़": 2399,
      "करके": 2400,
      "imp": 2401,
      "पुकार": 2402,
      "इन्": 2403,
      "जबकि": 2404,
      "शख": 2405,
      "शख्स": 2406,
      "##arch": 2407,
      "mon": 2408,
      "##क्षा": 2409,
      "निकाल": 2410,
      "mat": 2411,
      "inter": 2412,
      "##ट्ट": 2413,
      "बड़ा": 2414,
      "मन": 2415,
      "ord": 2416,
      "रु": 2417,
      "probably": 2418,
      "सो": 2419,
      "करेंगे": 2420,
      "##पी": 2421,
      "##स्क": 2422,
      "तु": 2423,
      "##वाह": 2424,
      "बीच": 2425,
      "మా": 2426,
      "जोड़": 2427,
      "दें": 2428,
      "leave": 2429,
      "देखा": 2430,
      "found": 2431,
      "land": 2432,
      "कुफ": 2433,
      "##्न": 2434,
      "पं": 2435,
      "##చ్": 2436,
      "therein": 2437,
      "merciful": 2438,
      "##ener": 2439,
      "त्र": 2440,
      "wit": 2441,
      "कहो": 2442,
      "##ica": 2443,
      "!\"": 2444,
      "nothing": 2445,
      "po": 2446,
      "व्यक्ति": 2447,
      "##ून": 2448,
      "##ents": 2449,
      "मैंने": 2450,
      "##ution": 2451,
      "sy": 2452,
      "whe": 2453,
      "जगह": 2454,
      "##िब": 2455,
      "pos": 2456,
      "पैग़म्बर": 2457,
      "क़ौम": 2458,
      "ok": 2459,
      "image": 2460,
      "warn": 2461,
      "##వా": 2462,
      "num": 2463,
      "ins": 2464,
      "##यार": 2465,
      "fail": 2466,
      "ऊपर": 2467,
      "कहीं": 2468,
      "कर्म": 2469,
      "चयन": 2470,
      "##up": 2471,
      "चि": 2472,
      "अच्छी": 2473,
      "##यं": 2474,
      "మరి": 2475,
      "##धे": 2476,
      "भेजा": 2477,
      "##नेवाला": 2478,
      "inform": 2479,
      "होकर": 2480,
      "ख़ु": 2481,
      "##बान": 2482,
      "women": 2483,
      "create": 2484,
      "रखो": 2485,
      "##డా": 2486,
      "रखा": 2487,
      "che": 2488,
      "each": 2489,
      "read": 2490,
      "##soever": 2491,
      "power": 2492,
      "ange": 2493,
      "witness": 2494,
      "forth": 2495,
      "many": 2496,
      "righteous": 2497,
      "ass": 2498,
      "जाना": 2499,
      "gard": 2500,
      "##लिए": 2501,
      "##बाद": 2502,
      "##త్": 2503,
      "##ire": 2504,
      "##था": 2505,
      "##టి": 2506,
      "hum": 2507,
      "##ँह": 2508,
      "cause": 2509,
      "val": 2510,
      "दूर": 2511,
      "##after": 2512,
      "##cri": 2513,
      "शी": 2514,
      "##इन": 2515,
      "##city": 2516,
      "छवि": 2517,
      "हक़": 2518,
      "जाते": 2519,
      "पस": 2520,
      "आयतों": 2521,
      "निकल": 2522,
      "##िरत": 2523,
      "मुँह": 2524,
      "सहेज": 2525,
      "వి": 2526,
      "car": 2527,
      "kill": 2528,
      "##iv": 2529,
      "##lete": 2530,
      "whether": 2531,
      "##av": 2532,
      "last": 2533,
      "##వు": 2534,
      "put": 2535,
      "गो": 2536,
      "ज्या": 2537,
      "मिटा": 2538,
      "others": 2539,
      "whoever": 2540,
      "ज्ञ": 2541,
      "त्रुट": 2542,
      "इसी": 2543,
      "##ains": 2544,
      "इब": 2545,
      "##चार": 2546,
      "bre": 2547,
      "##ोह": 2548,
      "account": 2549,
      "##red": 2550,
      "##its": 2551,
      "##यान": 2552,
      "without": 2553,
      "##డ్": 2554,
      "##ष्ठ": 2555,
      "##ారు": 2556,
      "selected": 2557,
      "revealed": 2558,
      "మరియు": 2559,
      "होते": 2560,
      "##नेवाले": 2561,
      "##తి": 2562,
      "true": 2563,
      "files": 2564,
      "unbelie": 2565,
      "##िला": 2566,
      "चुका": 2567,
      "##న్ని": 2568,
      "##స్తు": 2569,
      "नमा": 2570,
      "##माण": 2571,
      "##ज्ञा": 2572,
      "##लाम": 2573,
      "अग": 2574,
      "##ैस": 2575,
      "going": 2576,
      "pat": 2577,
      "rest": 2578,
      "too": 2579,
      "सका": 2580,
      "##less": 2581,
      "देखो": 2582,
      "##alk": 2583,
      "serv": 2584,
      "whatever": 2585,
      "##arm": 2586,
      "search": 2587,
      "guidance": 2588,
      "त्रुटि": 2589,
      "##rent": 2590,
      "कॉ": 2591,
      "qur": 2592,
      "क्र": 2593,
      "brought": 2594,
      "रंग": 2595,
      "दिखाएँ": 2596,
      "none": 2597,
      "##ृत": 2598,
      "दृ": 2599,
      "सबसे": 2600,
      "messengers": 2601,
      "##చ్చ": 2602,
      "##ides": 2603,
      "आपको": 2604,
      "रोक": 2605,
      "gra": 2606,
      "ईमानदार": 2607,
      "अत्य": 2608,
      ":%": 2609,
      "##aught": 2610,
      "ty": 2611,
      "##ेशा": 2612,
      "##bey": 2613,
      "औरत": 2614,
      "##सम": 2615,
      "saw": 2616,
      "##ंक": 2617,
      "mus": 2618,
      "##ict": 2619,
      "form": 2620,
      "lit": 2621,
      "##ute": 2622,
      "##ates": 2623,
      "head": 2624,
      "सहाय": 2625,
      "gave": 2626,
      "##ew": 2627,
      "full": 2628,
      "wait": 2629,
      "##bo": 2630,
      "fav": 2631,
      "water": 2632,
      "##లో": 2633,
      "##ont": 2634,
      "ref": 2635,
      "आज": 2636,
      "au": 2637,
      "appoin": 2638,
      "##ूह": 2639,
      "light": 2640,
      "play": 2641,
      "first": 2642,
      "ra": 2643,
      "##वाब": 2644,
      "children": 2645,
      "##वल": 2646,
      "mail": 2647,
      "##ियो": 2648,
      "इसलिए": 2649,
      "left": 2650,
      "कारण": 2651,
      "दिए": 2652,
      "कृप": 2653,
      "##day": 2654,
      "झूठ": 2655,
      "##रज़": 2656,
      "भाई": 2657,
      "##ूट": 2658,
      "संप": 2659,
      "messages": 2660,
      "##कुल": 2661,
      "sm": 2662,
      "wise": 2663,
      "view": 2664,
      "##oup": 2665,
      "స్": 2666,
      "##ंट": 2667,
      "son": 2668,
      "जिसके": 2669,
      "underst": 2670,
      "okay": 2671,
      "नया": 2672,
      "edit": 2673,
      "मोम": 2674,
      "चुनें": 2675,
      "##ene": 2676,
      "जहन्नुम": 2677,
      "tak": 2678,
      "vers": 2679,
      "current": 2680,
      "##oh": 2681,
      "##पस": 2682,
      "##लब": 2683,
      "##क्स": 2684,
      "##ज़ी": 2685,
      "##्रा": 2686,
      "##ट्टी": 2687,
      "बचा": 2688,
      "##हत": 2689,
      "##br": 2690,
      "##నికి": 2691,
      "अत्यन्त": 2692,
      "##ालिम": 2693,
      "विष": 2694,
      "##धि": 2695,
      "love": 2696,
      "dif": 2697,
      "oh": 2698,
      "छोड़": 2699,
      "rece": 2700,
      "##com": 2701,
      "ज़रूर": 2702,
      "फरमा": 2703,
      "gon": 2704,
      "अभी": 2705,
      "aff": 2706,
      "##air": 2707,
      "##पाद": 2708,
      "##ंध": 2709,
      "विन": 2710,
      "##बत": 2711,
      "bu": 2712,
      "being": 2713,
      "सद": 2714,
      "लेकर": 2715,
      "prev": 2716,
      "thus": 2717,
      "##ప్పు": 2718,
      "सख्त": 2719,
      "जिनके": 2720,
      "text": 2721,
      "gener": 2722,
      "##ced": 2723,
      "##सान": 2724,
      "हमेशा": 2725,
      "##ेक": 2726,
      "सूचना": 2727,
      "address": 2728,
      "deny": 2729,
      "అత": 2730,
      "जिन्होंने": 2731,
      "चला": 2732,
      "auth": 2733,
      "##గ్": 2734,
      "little": 2735,
      "seek": 2736,
      "angels": 2737,
      "sk": 2738,
      "contact": 2739,
      "speak": 2740,
      "एह": 2741,
      "reg": 2742,
      "लगता": 2743,
      "##ument": 2744,
      "कृपया": 2745,
      "##rection": 2746,
      "server": 2747,
      "##धार": 2748,
      "kind": 2749,
      "##ंडो": 2750,
      "विषय": 2751,
      "##-#": 2752,
      "##fe": 2753,
      "##िश्त": 2754,
      "check": 2755,
      "बन्दों": 2756,
      "बयान": 2757,
      "हाला": 2758,
      "av": 2759,
      "cop": 2760,
      "थो": 2761,
      "move": 2762,
      "gonna": 2763,
      "पक": 2764,
      "##ैन": 2765,
      "run": 2766,
      "बढ़": 2767,
      "##ope": 2768,
      "torment": 2769,
      "exp": 2770,
      "tas": 2771,
      "##रत": 2772,
      "सर्वर": 2773,
      "ey": 2774,
      "understand": 2775,
      "must": 2776,
      "##सल": 2777,
      "बुला": 2778,
      "ఉంది": 2779,
      "##वास": 2780,
      "मिला": 2781,
      "जल्": 2782,
      "##िश्": 2783,
      "##हे": 2784,
      "रखता": 2785,
      "dou": 2786,
      "ऐसी": 2787,
      "##ిన": 2788,
      "char": 2789,
      "long": 2790,
      "##ib": 2791,
      "inst": 2792,
      "गिरोह": 2793,
      "प्रभ": 2794,
      "##एं": 2795,
      "अता": 2796,
      "##ंभ": 2797,
      "##दू": 2798,
      "मालूम": 2799,
      "sw": 2800,
      "विंडो": 2801,
      "also": 2802,
      "failed": 2803,
      "##oc": 2804,
      "bes": 2805,
      "बरा": 2806,
      "##de": 2807,
      "जैसे": 2808,
      "loc": 2809,
      "##ouse": 2810,
      "disbelieve": 2811,
      "##राहीम": 2812,
      "forgiving": 2813,
      "మే": 2814,
      "डाक": 2815,
      "##त्व": 2816,
      "जाती": 2817,
      "जीवन": 2818,
      "##cer": 2819,
      "##ret": 2820,
      ".'": 2821,
      "sat": 2822,
      "unbelievers": 2823,
      "pur": 2824,
      "##ys": 2825,
      "mak": 2826,
      "लें": 2827,
      "తె": 2828,
      "प्": 2829,
      "whose": 2830,
      "##िति": 2831,
      "..": 2832,
      "through": 2833,
      "##kind": 2834,
      "saying": 2835,
      "उत्त": 2836,
      "वापस": 2837,
      "इबराहीम": 2838,
      "ख़ा": 2839,
      "dat": 2840,
      "##र्च": 2841,
      "direct": 2842,
      "belong": 2843,
      "##ial": 2844,
      "home": 2845,
      "तुमपर": 2846,
      "तुममें": 2847,
      "death": 2848,
      "कमा": 2849,
      "ठहरा": 2850,
      "hand": 2851,
      "बंद": 2852,
      "##ंत": 2853,
      "##ద్": 2854,
      "resur": 2855,
      "number": 2856,
      "requ": 2857,
      "##ible": 2858,
      "ని": 2859,
      "प्रमाण": 2860,
      "peace": 2861,
      "शैतान": 2862,
      "##aste": 2863,
      "something": 2864,
      "meet": 2865,
      "##ock": 2866,
      "##करण": 2867,
      "##just": 2868,
      "mankind": 2869,
      "##औन": 2870,
      "toward": 2871,
      "det": 2872,
      "##సు": 2873,
      "##्रह": 2874,
      "वै": 2875,
      "wish": 2876,
      "revelation": 2877,
      "##प्त": 2878,
      "eat": 2879,
      "##ందు": 2880,
      "astr": 2881,
      "प्रयोग": 2882,
      "bene": 2883,
      "ग़रज़": 2884,
      "बराबर": 2885,
      "देखते": 2886,
      "वाय": 2887,
      "hereafter": 2888,
      "बोल": 2889,
      "stand": 2890,
      "project": 2891,
      "##ond": 2892,
      "200": 2893,
      "##स्म": 2894,
      "##ified": 2895,
      "वाक़": 2896,
      "बाज़": 2897,
      "yeah": 2898,
      "तै": 2899,
      "##pect": 2900,
      "##ैसला": 2901,
      "संपर्क": 2902,
      "done": 2903,
      "केवल": 2904,
      "##ash": 2905,
      "free": 2906,
      "##ited": 2907,
      "very": 2908,
      "रहेंगे": 2909,
      "##ल्प": 2910,
      "मेहर": 2911,
      "disbelievers": 2912,
      "ज्यादा": 2913,
      "knowing": 2914,
      "जिन्हें": 2915,
      "जाएगी": 2916,
      "become": 2917,
      "##క్కడ": 2918,
      "बड़ी": 2919,
      "##ज्य": 2920,
      "संपाद": 2921,
      "everything": 2922,
      "##ready": 2923,
      "already": 2924,
      "destro": 2925,
      "support": 2926,
      "##न्दा": 2927,
      "therefore": 2928,
      "समा": 2929,
      "पूरी": 2930,
      "करनेवालों": 2931,
      "स्पष्ट": 2932,
      "फेर": 2933,
      "उपयोग": 2934,
      "विक": 2935,
      "fuck": 2936,
      "astray": 2937,
      "मौजूद": 2938,
      "जिसमें": 2939,
      "##दायत": 2940,
      "हिदायत": 2941,
      "बातें": 2942,
      "प्रत्य": 2943,
      "##राम": 2944,
      "apost": 2945,
      "group": 2946,
      "high": 2947,
      "सम्": 2948,
      "cons": 2949,
      "काफ": 2950,
      "मुक़": 2951,
      "कुफ्": 2952,
      "##रीब": 2953,
      "anything": 2954,
      "##ead": 2955,
      "##play": 2956,
      "information": 2957,
      "both": 2958,
      "bless": 2959,
      "नसी": 2960,
      "cor": 2961,
      "neither": 2962,
      "स्वयं": 2963,
      "మేము": 2964,
      "पुर": 2965,
      "thing": 2966,
      "much": 2967,
      "##ोट": 2968,
      "##mit": 2969,
      "##ision": 2970,
      "order": 2971,
      "देने": 2972,
      "दिलों": 2973,
      "हमारा": 2974,
      "##कट": 2975,
      "##ింది": 2976,
      "##र्व": 2977,
      "##ूरत": 2978,
      "आकाशों": 2979,
      "##way": 2980,
      "क़ौम": 2981,
      "trust": 2982,
      "destroy": 2983,
      "##మ్": 2984,
      "##श्चा": 2985,
      "बड़ी": 2986,
      "##वाद": 2987,
      "test": 2988,
      "खोज": 2989,
      "happ": 2990,
      "pleas": 2991,
      "बच्": 2992,
      "##ంగా": 2993,
      "डाला": 2994,
      "accept": 2995,
      "पश्चा": 2996,
      "##als": 2997,
      "##तः": 2998,
      "खेल": 2999,
      "##्हीं": 3000,
      "hands": 3001,
      "चयनित": 3002,
      "##ोन": 3003,
      "though": 3004,
      "dead": 3005,
      "remove": 3006,
      "hour": 3007,
      "##bar": 3008,
      "prot": 3009,
      "पृ": 3010,
      "##మి": 3011,
      "hey": 3012,
      "##िरों": 3013,
      "frie": 3014,
      "शि": 3015,
      "काफ़": 3016,
      "##र्य": 3017,
      "नसीहत": 3018,
      "कैसे": 3019,
      "सही": 3020,
      "లేదు": 3021,
      "yes": 3022,
      "##cess": 3023,
      "##्ल": 3024,
      "dist": 3025,
      "##धा": 3026,
      "reject": 3027,
      "resp": 3028,
      "ht": 3029,
      "near": 3030,
      "sor": 3031,
      "##ेष": 3032,
      "mighty": 3033,
      "तुझ": 3034,
      "डरा": 3035,
      "relig": 3036,
      "guard": 3037,
      "अभ": 3038,
      "जर": 3039,
      "पढ़": 3040,
      "चले": 3041,
      "##्ते": 3042,
      "##ows": 3043,
      "देंगे": 3044,
      "हे": 3045,
      "father": 3046,
      "पश्चात": 3047,
      "type": 3048,
      "सज": 3049,
      "mis": 3050,
      "##गाह": 3051,
      "##नेवालों": 3052,
      "##ुक": 3053,
      "##ained": 3054,
      "##ార": 3055,
      "##यू": 3056,
      "बख": 3057,
      "protect": 3058,
      "##ne": 3059,
      "शक": 3060,
      "amer": 3061,
      "दोस्त": 3062,
      "वास्त": 3063,
      "doing": 3064,
      "min": 3065,
      "turned": 3066,
      "सेट": 3067,
      "##lend": 3068,
      "display": 3069,
      "dra": 3070,
      "निशानियाँ": 3071,
      "##lish": 3072,
      "_s": 3073,
      "##ంద": 3074,
      "],": 3075,
      "##gether": 3076,
      "सुना": 3077,
      "##miss": 3078,
      "##लट": 3079,
      "##word": 3080,
      "##पन": 3081,
      "promise": 3082,
      "जहाँ": 3083,
      "old": 3084,
      "##ख़्श": 3085,
      "होती": 3086,
      "बहु": 3087,
      "##ब्द": 3088,
      "pers": 3089,
      "wo": 3090,
      "resurrection": 3091,
      "पत्": 3092,
      "माम": 3093,
      "आपके": 3094,
      "एव": 3095,
      "##idden": 3096,
      "obey": 3097,
      "प्रकाश": 3098,
      "क़ुर": 3099,
      "believed": 3100,
      "fight": 3101,
      "बड़े": 3102,
      "##ज़र": 3103,
      "color": 3104,
      "##nect": 3105,
      "##ara": 3106,
      "आई": 3107,
      "prayer": 3108,
      "बदले": 3109,
      "##ided": 3110,
      "बिल्": 3111,
      "soul": 3112,
      "##तने": 3113,
      "guide": 3114,
      "chang": 3115,
      "वास्तव": 3116,
      "लड़": 3117,
      "##ault": 3118,
      "घा": 3119,
      "##ull": 3120,
      "तैयार": 3121,
      "##ेगा": 3122,
      "##एगा": 3123,
      "##ared": 3124,
      "gardens": 3125,
      "अलग": 3126,
      "##gress": 3127,
      "##डियो": 3128,
      "##ेट": 3129,
      "poss": 3130,
      "ली": 3131,
      "(%": 3132,
      "mount": 3133,
      "వె": 3134,
      "शरी": 3135,
      "##्वाह": 3136,
      "डिस्क": 3137,
      "कहेंगे": 3138,
      "##वर्त": 3139,
      "पढ़": 3140,
      "बेहतर": 3141,
      "##क्ट": 3142,
      "स्थान": 3143,
      "##ुल्म": 3144,
      "पाक": 3145,
      "##ouch": 3146,
      "hard": 3147,
      "##ating": 3148,
      "yourselves": 3149,
      "try": 3150,
      "लड़": 3151,
      "##ix": 3152,
      "##मेर": 3153,
      "ones": 3154,
      "##एँगे": 3155,
      "##మా": 3156,
      "##पि": 3157,
      "##ष्टि": 3158,
      "क़ुरान": 3159,
      "हरग": 3160,
      "हरगिज़": 3161,
      "##ित्र": 3162,
      "##शील": 3163,
      "##soci": 3164,
      "mod": 3165,
      "विश्": 3166,
      "बातों": 3167,
      "हिस्": 3168,
      "सरक": 3169,
      "उठ": 3170,
      "##ark": 3171,
      "కొ": 3172,
      "##gn": 3173,
      "##्रो": 3174,
      "##ైన": 3175,
      "##oy": 3176,
      "brother": 3177,
      "सच्चे": 3178,
      "सज़ा": 3179,
      "_f": 3180,
      "copy": 3181,
      "really": 3182,
      "mem": 3183,
      "##ple": 3184,
      "##గి": 3185,
      "जोड़ें": 3186,
      "load": 3187,
      "##माल": 3188,
      "guided": 3189,
      "आओ": 3190,
      "##ళ్": 3191,
      "pra": 3192,
      "religion": 3193,
      "आदेश": 3194,
      "तरफ़": 3195,
      "रहने": 3196,
      "bear": 3197,
      "##तनी": 3198,
      "together": 3199,
      ".’": 3200,
      "##र्ट": 3201,
      "##िश्ते": 3202,
      "change": 3203,
      "आने": 3204,
      "शक़": 3205,
      "छु": 3206,
      "##ँकि": 3207,
      "doub": 3208,
      "sim": 3209,
      "बख्श": 3210,
      "pain": 3211,
      "वज": 3212,
      "associ": 3213,
      "##-#-#": 3214,
      "equ": 3215,
      "माब": 3216,
      "reach": 3217,
      "वाक़ि": 3218,
      "##\\\\": 3219,
      "chast": 3220,
      "eyes": 3221,
      "stay": 3222,
      "चलो": 3223,
      "చూ": 3224,
      "user": 3225,
      "बैठे": 3226,
      "हालाँकि": 3227,
      "##ened": 3228,
      "himself": 3229,
      "मोह": 3230,
      "खुद": 3231,
      "भाग": 3232,
      "##िले": 3233,
      "##प्र": 3234,
      "term": 3235,
      "आर": 3236,
      "जमा": 3237,
      "behind": 3238,
      "यु": 3239,
      "##cl": 3240,
      "##ूप": 3241,
      "लेते": 3242,
      "##ँच": 3243,
      "##ugin": 3244,
      "अमेर": 3245,
      "पड़": 3246,
      "forgiven": 3247,
      "उन्हीं": 3248,
      "प्रार": 3249,
      "तथा": 3250,
      "पाठ": 3251,
      "##श्त": 3252,
      "झुठलाया": 3253,
      "##rib": 3254,
      "जादू": 3255,
      ".)": 3256,
      "_d": 3257,
      "##ंस": 3258,
      "cho": 3259,
      "पृष्ठ": 3260,
      "फ़र": 3261,
      "बस्त": 3262,
      "सत्य": 3263,
      "##रों": 3264,
      "माबूद": 3265,
      "पड़े": 3266,
      "##ुब": 3267,
      "judge": 3268,
      "##reen": 3269,
      "##ొక్క": 3270,
      "इबाद": 3271,
      "##wer": 3272,
      "differ": 3273,
      "पाल": 3274,
      "సం": 3275,
      "america": 3276,
      "data": 3277,
      "##olution": 3278,
      "लौट": 3279,
      "able": 3280,
      "##line": 3281,
      "phara": 3282,
      "fal": 3283,
      "शख़्श": 3284,
      "हटा": 3285,
      "##ures": 3286,
      "alone": 3287,
      "इबादत": 3288,
      "##ned": 3289,
      "तत्व": 3290,
      "##त्या": 3291,
      "pharaoh": 3292,
      "burn": 3293,
      "दीन": 3294,
      "##ॉग": 3295,
      "hold": 3296,
      "वजह": 3297,
      "##्ड": 3298,
      "aut": 3299,
      "स्थिति": 3300,
      "bar": 3301,
      "##ज़ी": 3302,
      "तौबा": 3303,
      "##alth": 3304,
      "##िक्त": 3305,
      "remind": 3306,
      "झग": 3307,
      "##well": 3308,
      "date": 3309,
      "विकल्प": 3310,
      "मनुष": 3311,
      "enj": 3312,
      "sur": 3313,
      "##ప్ప": 3314,
      "जिसका": 3315,
      "##द्य": 3316,
      "##ger": 3317,
      "##tp": 3318,
      "जवाब": 3319,
      "avail": 3320,
      "##రా": 3321,
      "प्रत्येक": 3322,
      "##ख्या": 3323,
      "साल": 3324,
      "##ंत्र": 3325,
      "forb": 3326,
      "doc": 3327,
      "die": 3328,
      "ఇది": 3329,
      "talk": 3330,
      "##मन": 3331,
      "default": 3332,
      "exist": 3333,
      "करनेवाला": 3334,
      "నాకు": 3335,
      "plugin": 3336,
      "##ूँगा": 3337,
      "still": 3338,
      "false": 3339,
      "##द्र": 3340,
      "action": 3341,
      "చె": 3342,
      "##owed": 3343,
      "##ोजना": 3344,
      "mor": 3345,
      "##vel": 3346,
      "hon": 3347,
      "stop": 3348,
      "##ज्": 3349,
      "connect": 3350,
      "month": 3351,
      "##्यू": 3352,
      "सामान": 3353,
      "उम्": 3354,
      "##rah": 3355,
      "ज्ञान": 3356,
      "##ms": 3357,
      "told": 3358,
      "scri": 3359,
      "आख़िर": 3360,
      "besides": 3361,
      "पेश": 3362,
      "भली": 3363,
      "डे": 3364,
      "concer": 3365,
      "bur": 3366,
      "आख़": 3367,
      "##ners": 3368,
      "task": 3369,
      "house": 3370,
      "##ज़ा": 3371,
      "अन्य": 3372,
      "##र्ड": 3373,
      "##స్త": 3374,
      "prin": 3375,
      "समर्थ": 3376,
      "el": 3377,
      "##ical": 3378,
      "जिसकी": 3379,
      "pay": 3380,
      "##बंध": 3381,
      "अत्या": 3382,
      "फ़र": 3383,
      "साफ": 3384,
      "years": 3385,
      "पो": 3386,
      "अमेरिका": 3387,
      "पड़े": 3388,
      "##ten": 3389,
      "##्ता": 3390,
      ",\"": 3391,
      "law": 3392,
      "##యా": 3393,
      "##lendar": 3394,
      "##क्ता": 3395,
      "दृश्य": 3396,
      "##्याल": 3397,
      "समझते": 3398,
      "##टक": 3399,
      "ख्वाह": 3400,
      "उसपर": 3401,
      "##ton": 3402,
      "##णाम": 3403,
      "forgiveness": 3404,
      "comes": 3405,
      "तेरे": 3406,
      "##णी": 3407,
      "towards": 3408,
      "आकार": 3409,
      "spec": 3410,
      "hast": 3411,
      "ans": 3412,
      "##लों": 3413,
      "##द्द": 3414,
      "_p": 3415,
      "grie": 3416,
      "चौ": 3417,
      "##యం": 3418,
      "item": 3419,
      "ext": 3420,
      "##ట్ట": 3421,
      "key": 3422,
      "ఉంట": 3423,
      "##wor": 3424,
      "script": 3425,
      "satan": 3426,
      "अक्ष": 3427,
      "forgive": 3428,
      "रे": 3429,
      "above": 3430,
      "drink": 3431,
      "##लु": 3432,
      "password": 3433,
      "##oud": 3434,
      "##ites": 3435,
      "पिछ": 3436,
      "abrah": 3437,
      "count": 3438,
      "benef": 3439,
      "##లే": 3440,
      "abraham": 3441,
      "unjust": 3442,
      "chastise": 3443,
      "##नि": 3444,
      "next": 3445,
      "वायदा": 3446,
      "##फा": 3447,
      "repl": 3448,
      "enc": 3449,
      "##ప్పుడు": 3450,
      "बिल्कुल": 3451,
      "##ంచి": 3452,
      "##यों": 3453,
      "called": 3454,
      "est": 3455,
      "##the": 3456,
      "अधि": 3457,
      "मज़": 3458,
      "succ": 3459,
      "days": 3460,
      "ख़ास": 3461,
      "fam": 3462,
      "##dom": 3463,
      "lead": 3464,
      "revelations": 3465,
      "##र्र": 3466,
      "##धी": 3467,
      "##ुरू": 3468,
      "वाली": 3469,
      "गवाह": 3470,
      "रौ": 3471,
      "##त्ता": 3472,
      "document": 3473,
      "क्ल": 3474,
      "##మె": 3475,
      "हला": 3476,
      "##ru": 3477,
      "मोमि": 3478,
      "##ments": 3479,
      "वी": 3480,
      "हट": 3481,
      "माँग": 3482,
      "##ेत्र": 3483,
      "##ual": 3484,
      "##put": 3485,
      "sun": 3486,
      "अवश्य": 3487,
      "config": 3488,
      "छि": 3489,
      "पथ": 3490,
      "tre": 3491,
      "अन्त": 3492,
      "##शिश": 3493,
      "आँ": 3494,
      "##uck": 3495,
      "యొక్క": 3496,
      "गयी": 3497,
      "हूं": 3498,
      "सहायता": 3499,
      "स्ट": 3500,
      "##io": 3501,
      "ent": 3502,
      "fall": 3503,
      "वर": 3504,
      "##ालिब": 3505,
      "enem": 3506,
      "##ired": 3507,
      "##वाही": 3508,
      "##ank": 3509,
      "##ale": 3510,
      "गुमराही": 3511,
      "beg": 3512,
      "##फ़ार": 3513,
      "##inn": 3514,
      "evolution": 3515,
      "खाता": 3516,
      "belongs": 3517,
      "_c": 3518,
      "##ोक्ता": 3519,
      "గు": 3520,
      "##ोस": 3521,
      "##ंज": 3522,
      "रहते": 3523,
      "करनेवाले": 3524,
      "cd": 3525,
      "दुख": 3526,
      "harm": 3527,
      "विर": 3528,
      "##ource": 3529,
      "अह": 3530,
      "##्रै": 3531,
      "##athers": 3532,
      "छिपा": 3533,
      "\".": 3534,
      "recom": 3535,
      "import": 3536,
      "ho": 3537,
      "##कात": 3538,
      "दुआ": 3539,
      "quran": 3540,
      "seen": 3541,
      "news": 3542,
      "##lo": 3543,
      "मी": 3544,
      "वादा": 3545,
      "शीर्ष": 3546,
      "हालत": 3547,
      "मिस": 3548,
      "dwell": 3549,
      "##स्तु": 3550,
      "##दर्शन": 3551,
      "संख्या": 3552,
      "##ried": 3553,
      "##ec": 3554,
      "##ream": 3555,
      "पुरुष": 3556,
      "wealth": 3557,
      "आयतें": 3558,
      "value": 3559,
      "कान": 3560,
      "बाग़": 3561,
      "##ody": 3562,
      "परिणाम": 3563,
      "मेहरबान": 3564,
      "page": 3565,
      "listen": 3566,
      "दस्ता": 3567,
      "అతను": 3568,
      "real": 3569,
      "प्रती": 3570,
      "].": 3571,
      "कोशिश": 3572,
      "जैसा": 3573,
      "author": 3574,
      "sky": 3575,
      "repent": 3576,
      "लिये": 3577,
      "appointed": 3578,
      "पूज्य": 3579,
      "sett": 3580,
      "सके": 3581,
      "కో": 3582,
      "state": 3583,
      "los": 3584,
      "अनुम": 3585,
      "servants": 3586,
      "ज़रुर": 3587,
      "अल": 3588,
      "चाल": 3589,
      "delete": 3590,
      "निश्चित": 3591,
      "डरते": 3592,
      "line": 3593,
      "ri": 3594,
      "निशानी": 3595,
      "##ience": 3596,
      "ईमानदारों": 3597,
      "सबको": 3598,
      "et": 3599,
      "##man": 3600,
      "##ized": 3601,
      "##ूदा": 3602,
      "div": 3603,
      "compan": 3604,
      "##तम": 3605,
      "##ॉकि": 3606,
      "##ेद": 3607,
      "##एस": 3608,
      "वो": 3609,
      "##ओगे": 3610,
      "साझ": 3611,
      "stra": 3612,
      "##्रिय": 3613,
      "स्क्र": 3614,
      "cal": 3615,
      "बुरी": 3616,
      "sir": 3617,
      "mag": 3618,
      "##दर्श": 3619,
      "answer": 3620,
      "whosoever": 3621,
      "ख़बर": 3622,
      "doubt": 3623,
      "डी": 3624,
      "परहे": 3625,
      "सकती": 3626,
      "##stem": 3627,
      "जिसको": 3628,
      "##గు": 3629,
      "ठिक": 3630,
      "सहेजें": 3631,
      "##comment": 3632,
      "प्लग": 3633,
      "##क्का": 3634,
      "gn": 3635,
      "कठ": 3636,
      "king": 3637,
      "पसंद": 3638,
      "##sc": 3639,
      "##ined": 3640,
      "कहाँ": 3641,
      "चार": 3642,
      "बनाएँ": 3643,
      "face": 3644,
      "commit": 3645,
      "ठिकाना": 3646,
      "##शाली": 3647,
      "हिस्सा": 3648,
      "fin": 3649,
      "टै": 3650,
      "swe": 3651,
      "##వి": 3652,
      "होना": 3653,
      "##ార్": 3654,
      "यूस": 3655,
      "##ml": 3656,
      "पूर्ण": 3657,
      "##ways": 3658,
      "same": 3659,
      "calendar": 3660,
      "matter": 3661,
      "##यूशन": 3662,
      "live": 3663,
      "ur": 3664,
      "हालॉकि": 3665,
      "##used": 3666,
      "मुक़र्र": 3667,
      "concerning": 3668,
      "सच": 3669,
      "क्षेत्र": 3670,
      "##ग़": 3671,
      "three": 3672,
      "##ोसा": 3673,
      "स्त्र": 3674,
      "favour": 3675,
      "far": 3676,
      "##ense": 3677,
      "##ention": 3678,
      "##पू": 3679,
      "##बरी": 3680,
      "नमाज़": 3681,
      "जारी": 3682,
      "सुर": 3683,
      "chastisement": 3684,
      "10": 3685,
      "perf": 3686,
      "##mm": 3687,
      "कदा": 3688,
      "फै": 3689,
      "##vere": 3690,
      "##get": 3691,
      "##డానికి": 3692,
      "##ాయి": 3693,
      "deli": 3694,
      "मालिक": 3695,
      "bus": 3696,
      "##do": 3697,
      "##ider": 3698,
      "##ities": 3699,
      "judg": 3700,
      "##ield": 3701,
      "यूसु": 3702,
      "भाँ": 3703,
      "जल्दी": 3704,
      "miss": 3705,
      "##ames": 3706,
      "दादा": 3707,
      "भलाई": 3708,
      "बेटे": 3709,
      "अरे": 3710,
      "కు": 3711,
      "means": 3712,
      "हराम": 3713,
      "##ipp": 3714,
      "पाया": 3715,
      "##ues": 3716,
      "##ols": 3717,
      "incre": 3718,
      "पहा": 3719,
      "##ोल्यूशन": 3720,
      "around": 3721,
      "close": 3722,
      "directory": 3723,
      "feel": 3724,
      "_m": 3725,
      "##az": 3726,
      "parad": 3727,
      "praise": 3728,
      "soon": 3729,
      "खोलें": 3730,
      "taste": 3731,
      "##रार": 3732,
      "##ires": 3733,
      "नूह": 3734,
      "##tern": 3735,
      "दयालु": 3736,
      "लोड": 3737,
      "##ళ్ళ": 3738,
      "bount": 3739,
      "ज़ालिम": 3740,
      "##దా": 3741,
      "aware": 3742,
      "mode": 3743,
      "##ची": 3744,
      "##चान": 3745,
      "चुकी": 3746,
      "तुझे": 3747,
      "apostle": 3748,
      "recompen": 3749,
      "##न्दगी": 3750,
      "took": 3751,
      "mean": 3752,
      "##ाद": 3753,
      "##्रोत": 3754,
      "मुसल": 3755,
      "adv": 3756,
      "##र्स": 3757,
      "निर्देश": 3758,
      "paradise": 3759,
      "12": 3760,
      "##ग्रह": 3761,
      "sing": 3762,
      "##सिल": 3763,
      "lot": 3764,
      "आख़िरत": 3765,
      "गवाही": 3766,
      "भाँति": 3767,
      "हक़": 3768,
      "##दर्शी": 3769,
      "आदम": 3770,
      "कुफ्फ़ार": 3771,
      "unable": 3772,
      "size": 3773,
      "prostr": 3774,
      "##ीनी": 3775,
      "\",": 3776,
      "anyone": 3777,
      "ఏమి": 3778,
      "watch": 3779,
      "##िश्तों": 3780,
      "etc": 3781,
      "certific": 3782,
      "बनाए": 3783,
      "मुसलमान": 3784,
      "hy": 3785,
      "##ंजी": 3786,
      "##ష్": 3787,
      "transgress": 3788,
      "port": 3789,
      "खूब": 3790,
      "परहेज़": 3791,
      "##ived": 3792,
      "##र्ता": 3793,
      "रखें": 3794,
      "writ": 3795,
      "भरोसा": 3796,
      "system": 3797,
      "नबी": 3798,
      "##ेंट": 3799,
      "##ियान": 3800,
      "पार": 3801,
      "sch": 3802,
      "प्रा": 3803,
      "##ाबले": 3804,
      "तकली": 3805,
      "permiss": 3806,
      "tar": 3807,
      "अर्": 3808,
      "औला": 3809,
      "##न्ट": 3810,
      "##धान": 3811,
      "nation": 3812,
      "tem": 3813,
      "##यु": 3814,
      "##ड़ी": 3815,
      "आपस": 3816,
      "plan": 3817,
      "grant": 3818,
      "##aim": 3819,
      "##एल": 3820,
      "doers": 3821,
      "pub": 3822,
      "आवा": 3823,
      "ग़ालिब": 3824,
      "##कत": 3825,
      "विश": 3826,
      "##ush": 3827,
      "मुक़र्रर": 3828,
      "info": 3829,
      "##box": 3830,
      "##शिया": 3831,
      "mother": 3832,
      "##ంత": 3833,
      "success": 3834,
      "lie": 3835,
      "परिवर्त": 3836,
      "##कों": 3837,
      "vide": 3838,
      "##पत्र": 3839,
      "##वत": 3840,
      "quest": 3841,
      "wills": 3842,
      "आयात": 3843,
      "दयावान": 3844,
      "फाइल": 3845,
      "एवोल्यूशन": 3846,
      "##బ్": 3847,
      "##చే": 3848,
      "दयालुता": 3849,
      "అను": 3850,
      "##ंदर": 3851,
      "##ाहिर": 3852,
      "बुराई": 3853,
      "_a": 3854,
      "thought": 3855,
      "##योक्ता": 3856,
      "##ines": 3857,
      "suff": 3858,
      "जाओगे": 3859,
      "lat": 3860,
      "मिटाएँ": 3861,
      "destroyed": 3862,
      "ख्याल": 3863,
      "sound": 3864,
      "##जू": 3865,
      "stat": 3866,
      "verses": 3867,
      "##िल्": 3868,
      "creation": 3869,
      "##mb": 3870,
      "तमा": 3871,
      "मिले": 3872,
      "##నీ": 3873,
      "mark": 3874,
      "manif": 3875,
      "present": 3876,
      "taken": 3877,
      "उत्तम": 3878,
      "painful": 3879,
      "family": 3880,
      "host": 3881,
      "always": 3882,
      "vis": 3883,
      "town": 3884,
      "इसका": 3885,
      "spend": 3886,
      "లో": 3887,
      "गोया": 3888,
      "##ling": 3889,
      "शाम": 3890,
      "देना": 3891,
      "नेअ": 3892,
      "promised": 3893,
      "sins": 3894,
      "ter": 3895,
      "##भाव": 3896,
      "सजदा": 3897,
      "बन्दगी": 3898,
      "हस्ता": 3899,
      "बोझ": 3900,
      "अफ": 3901,
      "##ोप": 3902,
      "यक़ीनी": 3903,
      "शुक्र": 3904,
      "today": 3905,
      "exal": 3906,
      "nay": 3907,
      "పొ": 3908,
      "##సి": 3909,
      "fun": 3910,
      "पलट": 3911,
      "मुना": 3912,
      "चन्द": 3913,
      "didn": 3914,
      "prof": 3915,
      "##odu": 3916,
      "अतिर": 3917,
      "बनाकर": 3918,
      "bir": 3919,
      "red": 3920,
      "##दम": 3921,
      "नेअमत": 3922,
      "fru": 3923,
      "cond": 3924,
      "##men": 3925,
      "अतिरिक्त": 3926,
      "दौ": 3927,
      "गुण": 3928,
      "##ude": 3929,
      "behold": 3930,
      "औलाद": 3931,
      "फिरऔन": 3932,
      "नही": 3933,
      "##ज़र": 3934,
      "format": 3935,
      "क़ुर": 3936,
      "deliver": 3937,
      "पट्टी": 3938,
      "##दरत": 3939,
      "meeting": 3940,
      "person": 3941,
      "इसकी": 3942,
      "फ़ैसला": 3943,
      "morning": 3944,
      "पुन": 3945,
      "adm": 3946,
      "ic": 3947,
      "wife": 3948,
      "##म्मे": 3949,
      "art": 3950,
      "ill": 3951,
      "बरसा": 3952,
      "##बे": 3953,
      "game": 3954,
      "निर": 3955,
      "शुरू": 3956,
      "##्ठा": 3957,
      "##ring": 3958,
      "##సం": 3959,
      "truly": 3960,
      "##अत": 3961,
      "##ablish": 3962,
      "##gram": 3963,
      "raised": 3964,
      "manifest": 3965,
      "##साब": 3966,
      "जरूरत": 3967,
      "##ength": 3968,
      "contr": 3969,
      "औरतों": 3970,
      "due": 3971,
      "establish": 3972,
      "##కా": 3973,
      "बदलें": 3974,
      "_r": 3975,
      "##ones": 3976,
      "del": 3977,
      "ख़ुद": 3978,
      "##ured": 3979,
      "till": 3980,
      "stri": 3981,
      "mind": 3982,
      "वर्ष": 3983,
      "प्रमाणपत्र": 3984,
      "जन्न": 3985,
      "touch": 3986,
      "##ज़त": 3987,
      "##osed": 3988,
      "सफल": 3989,
      "ఇక్కడ": 3990,
      "ति": 3991,
      "##ज़ार": 3992,
      "jinn": 3993,
      "kde": 3994,
      "मनुष्य": 3995,
      "सन्": 3996,
      "##िट": 3997,
      "##ध्य": 3998,
      "##న్నాను": 3999,
      "सलाम": 4000,
      "అన్ని": 4001,
      "hide": 4002,
      "##lf": 4003,
      "कमांड": 4004,
      "flow": 4005,
      "कल": 4006,
      "human": 4007,
      "##ner": 4008,
      "जु": 4009,
      "##aring": 4010,
      "##ased": 4011,
      "असफल": 4012,
      "परिय": 4013,
      "परियोजना": 4014,
      "घट": 4015,
      "ce": 4016,
      "poin": 4017,
      "##ंख": 4018,
      "_n": 4019,
      "care": 4020,
      "##ins": 4021,
      "दर्": 4022,
      "##चांग": 4023,
      "cat": 4024,
      "inh": 4025,
      "patient": 4026,
      "पकड़": 4027,
      "##oke": 4028,
      "जहन्नम": 4029,
      "cour": 4030,
      "##लील": 4031,
      "##वीकार": 4032,
      "bad": 4033,
      "##ईल": 4034,
      "##ज़े": 4035,
      "##क्शन": 4036,
      "अनक़": 4037,
      "##ians": 4038,
      "##ोध": 4039,
      "knew": 4040,
      "सौ": 4041,
      "log": 4042,
      "सीधे": 4043,
      "पैग़म्बरों": 4044,
      "_t": 4045,
      "ऊँ": 4046,
      "ign": 4047,
      "click": 4048,
      "##हरें": 4049,
      "पंचांग": 4050,
      "thank": 4051,
      "##िक़": 4052,
      "##ences": 4053,
      "eur": 4054,
      "तस": 4055,
      "लेने": 4056,
      "रौशन": 4057,
      "इतना": 4058,
      "possess": 4059,
      "##जन": 4060,
      "isl": 4061,
      "lost": 4062,
      "straight": 4063,
      "eas": 4064,
      "cast": 4065,
      "##बह": 4066,
      "##र्ग": 4067,
      "##ices": 4068,
      "##tend": 4069,
      "words": 4070,
      "choose": 4071,
      "##ator": 4072,
      "इसरा": 4073,
      "रहमत": 4074,
      "##ateful": 4075,
      "dur": 4076,
      "##ाया": 4077,
      "తెలు": 4078,
      "बहुते": 4079,
      "tid": 4080,
      "city": 4081,
      "propert": 4082,
      "gone": 4083,
      "mr": 4084,
      "sn": 4085,
      "వా": 4086,
      "##ॉप": 4087,
      "##ery": 4088,
      "बिना": 4089,
      "sorry": 4090,
      "हासिल": 4091,
      "certificate": 4092,
      "##ैव": 4093,
      "तरी": 4094,
      "##iness": 4095,
      "##ently": 4096,
      "fact": 4097,
      "##क्षर": 4098,
      "బా": 4099,
      "##आन": 4100,
      "सच्चा": 4101,
      "receive": 4102,
      "##ility": 4103,
      "##हास": 4104,
      "मार्गदर्शन": 4105,
      "##बार": 4106,
      "##alid": 4107,
      "##ुत्व": 4108,
      "video": 4109,
      "reminder": 4110,
      "fast": 4111,
      "desire": 4112,
      "नमाज़": 4113,
      "##जार": 4114,
      "##lled": 4115,
      "program": 4116,
      "##cked": 4117,
      "proof": 4118,
      "break": 4119,
      "प्रभुत्व": 4120,
      "समाप्त": 4121,
      "##ief": 4122,
      "##ियामत": 4123,
      "क़ियामत": 4124,
      "##ेरत": 4125,
      "##me": 4126,
      "అవు": 4127,
      "##ote": 4128,
      "##oney": 4129,
      "rain": 4130,
      "asked": 4131,
      "आज्ञा": 4132,
      "tool": 4133,
      "source": 4134,
      "ज़ाहिर": 4135,
      "विश्वास": 4136,
      "fathers": 4137,
      "gather": 4138,
      "##und": 4139,
      "उपयोक्ता": 4140,
      "invalid": 4141,
      "जन्नत": 4142,
      "शा": 4143,
      "अंत": 4144,
      "settings": 4145,
      "##डे": 4146,
      "wid": 4147,
      "बू": 4148,
      "##लम": 4149,
      "##आई": 4150,
      "निकट": 4151,
      "denied": 4152,
      "##क्षित": 4153,
      "अनक़रीब": 4154,
      "निका": 4155,
      "सक्रिय": 4156,
      "बनाने": 4157,
      "bit": 4158,
      "##ffer": 4159,
      "http": 4160,
      "##pty": 4161,
      "बारगाह": 4162,
      "magic": 4163,
      "?”": 4164,
      "स्रोत": 4165,
      "रहें": 4166,
      "मुह": 4167,
      "accord": 4168,
      "isra": 4169,
      "gods": 4170,
      "ईसा": 4171,
      "##ters": 4172,
      "applic": 4173,
      "मतलब": 4174,
      "friend": 4175,
      "##orn": 4176,
      "##मियान": 4177,
      "coming": 4178,
      "ut": 4179,
      "##च्च": 4180,
      "दरमियान": 4181,
      "##col": 4182,
      "##वेश": 4183,
      "तूने": 4184,
      "exam": 4185,
      "##క్ష": 4186,
      "##फर": 4187,
      "##्राम": 4188,
      "##्यास": 4189,
      "रसूलों": 4190,
      "side": 4191,
      "##్రా": 4192,
      "इन्कार": 4193,
      "##कर्ता": 4194,
      "##leted": 4195,
      "ओह": 4196,
      "##ल्य": 4197,
      "woman": 4198,
      "सदैव": 4199,
      "ख़ूब": 4200,
      "मुझसे": 4201,
      "pop": 4202,
      "चलते": 4203,
      "##మైన": 4204,
      "पिता": 4205,
      "ज़िन्दा": 4206,
      "तीन": 4207,
      "##hood": 4208,
      "works": 4209,
      "फल": 4210,
      "##use": 4211,
      "##కో": 4212,
      "करोगे": 4213,
      "तत्वदर्शी": 4214,
      "tidings": 4215,
      "vict": 4216,
      "खाली": 4217,
      "किन": 4218,
      "क्षमाशील": 4219,
      "वस्तु": 4220,
      "दूसरी": 4221,
      "editor": 4222,
      "तय": 4223,
      "says": 4224,
      "ज़िन्दगी": 4225,
      "changes": 4226,
      "तस्": 4227,
      "prep": 4228,
      "प्रारंभ": 4229,
      "कदापि": 4230,
      "हस्ताक्षर": 4231,
      "पसन्द": 4232,
      "आँख": 4233,
      "##गल": 4234,
      "##यर": 4235,
      "fucking": 4236,
      "hur": 4237,
      "recompense": 4238,
      "##दारों": 4239,
      "report": 4240,
      "##్యా": 4241,
      "కాదు": 4242,
      "आख़िरत": 4243,
      "##row": 4244,
      "##ta": 4245,
      "##...": 4246,
      "##नेवाली": 4247,
      "मौत": 4248,
      "dv": 4249,
      "शाय": 4250,
      "contin": 4251,
      "सन्तान": 4252,
      "##बल": 4253,
      "wives": 4254,
      "##सीबत": 4255,
      "##द्धि": 4256,
      "blind": 4257,
      "मुसीबत": 4258,
      "##कीन": 4259,
      "evid": 4260,
      "शरीक": 4261,
      "hyp": 4262,
      "##पे": 4263,
      "योग": 4264,
      "सिवाय": 4265,
      "क़सम": 4266,
      "करती": 4267,
      "सामर्थ": 4268,
      "##ॉन": 4269,
      "रहेगा": 4270,
      "सब्र": 4271,
      "arg": 4272,
      "##तु": 4273,
      "भू": 4274,
      "जाँच": 4275,
      "version": 4276,
      "vo": 4277,
      "गुनाहों": 4278,
      "opp": 4279,
      "बोले": 4280,
      "##गु": 4281,
      "##gg": 4282,
      "gives": 4283,
      "##esh": 4284,
      "hearing": 4285,
      "ru": 4286,
      "ढूं": 4287,
      "ईमानवालों": 4288,
      "arch": 4289,
      "tit": 4290,
      "बख्शने": 4291,
      "शहर": 4292,
      "web": 4293,
      "dep": 4294,
      "संसार": 4295,
      "##तरित": 4296,
      "case": 4297,
      "मुश": 4298,
      "##बीह": 4299,
      "empty": 4300,
      "बच": 4301,
      "##cy": 4302,
      "ख़बर": 4303,
      "produ": 4304,
      "woe": 4305,
      "अधिकार": 4306,
      "भूल": 4307,
      "वाक़िफ": 4308,
      "israel": 4309,
      "हवा": 4310,
      "घरों": 4311,
      "सोच": 4312,
      "20": 4313,
      "प्य": 4314,
      "coven": 4315,
      "साझी": 4316,
      "सां": 4317,
      "lab": 4318,
      "आव": 4319,
      "cover": 4320,
      "हिसाब": 4321,
      "tab": 4322,
      "मुसलमानों": 4323,
      "##ापन": 4324,
      "मर्द": 4325,
      "दिख": 4326,
      "dark": 4327,
      "स्वीकार": 4328,
      "नए": 4329,
      "##नाम": 4330,
      "ढूंढ": 4331,
      "##kn": 4332,
      "met": 4333,
      "##ింగ్": 4334,
      "la": 4335,
      "बेट": 4336,
      "plac": 4337,
      "email": 4338,
      "खो": 4339,
      "##ద్ద": 4340,
      "tim": 4341,
      "##ric": 4342,
      "औऱ": 4343,
      "truthful": 4344,
      "less": 4345,
      "भय": 4346,
      "##कता": 4347,
      "##ैध": 4348,
      "##गत": 4349,
      "rivers": 4350,
      "##नेवालो": 4351,
      "वर्त": 4352,
      "##राह": 4353,
      "lay": 4354,
      "##ature": 4355,
      "##ane": 4356,
      "wee": 4357,
      "मोड": 4358,
      "##िल्टर": 4359,
      "four": 4360,
      "sal": 4361,
      "##ulf": 4362,
      "अवैध": 4363,
      "फ़रमा": 4364,
      "judgment": 4365,
      "तला": 4366,
      "धर्म": 4367,
      "ज़ालिम": 4368,
      "asia": 4369,
      "lies": 4370,
      "attach": 4371,
      "enjoy": 4372,
      "नहरें": 4373,
      "sea": 4374,
      "फ़ॉ": 4375,
      "mountains": 4376,
      "ग़": 4377,
      "यू": 4378,
      "commun": 4379,
      "पुस्त": 4380,
      "पंक्ति": 4381,
      "##వ్": 4382,
      "##मेल": 4383,
      "gir": 4384,
      "##ully": 4385,
      "disbelieved": 4386,
      "##ware": 4387,
      ")?": 4388,
      "बड़े": 4389,
      "deb": 4390,
      "status": 4391,
      "तमाम": 4392,
      "sol": 4393,
      "##oss": 4394,
      "खुश": 4395,
      "provided": 4396,
      "##ocr": 4397,
      "consider": 4398,
      "ग्र": 4399,
      "##याँ": 4400,
      "हिक": 4401,
      "appoint": 4402,
      "question": 4403,
      "main": 4404,
      "secret": 4405,
      ",-": 4406,
      "इल्म": 4407,
      "ఉన్నా": 4408,
      "काट": 4409,
      "appe": 4410,
      "क़ुरआन": 4411,
      "19": 4412,
      "sons": 4413,
      "##పో": 4414,
      "##रान": 4415,
      "##यम": 4416,
      "record": 4417,
      "pen": 4418,
      "har": 4419,
      "అది": 4420,
      "known": 4421,
      "पहुँचे": 4422,
      "उल": 4423,
      "##by": 4424,
      "##lim": 4425,
      "using": 4426,
      "##ished": 4427,
      "##rie": 4428,
      "सामर्थ्य": 4429,
      "చా": 4430,
      "ज़ि": 4431,
      "makes": 4432,
      "##चित": 4433,
      "कहना": 4434,
      "covenant": 4435,
      "firm": 4436,
      "mary": 4437,
      "निर्देशिका": 4438,
      "##युक्त": 4439,
      "मुक़": 4440,
      "##िक्र": 4441,
      "పా": 4442,
      "##कन": 4443,
      "##शब्द": 4444,
      "having": 4445,
      "विफल": 4446,
      "##angu": 4447,
      "##aves": 4448,
      "##ऊँ": 4449,
      "ah": 4450,
      "saved": 4451,
      "lest": 4452,
      "प्रभु": 4453,
      "##ूरी": 4454,
      "कुंजी": 4455,
      "कूट": 4456,
      "##नीन": 4457,
      "पीठ": 4458,
      "grace": 4459,
      "अनुमति": 4460,
      "dvd": 4461,
      "went": 4462,
      "##చి": 4463,
      "##अप": 4464,
      "thereof": 4465,
      "build": 4466,
      "##उट": 4467,
      "नेकी": 4468,
      "imm": 4469,
      "शुभ": 4470,
      "मेल": 4471,
      "##त्म": 4472,
      "सर्व": 4473,
      "##సిన": 4474,
      "प्रभुत्वशाली": 4475,
      "pal": 4476,
      "##ख्ते": 4477,
      "##ative": 4478,
      "remain": 4479,
      "options": 4480,
      "शायद": 4481,
      "##िस्म": 4482,
      "##काल": 4483,
      "##omes": 4484,
      "सहायक": 4485,
      "विनष्ट": 4486,
      "अन्": 4487,
      "##లను": 4488,
      "button": 4489,
      "object": 4490,
      "link": 4491,
      "##्ति": 4492,
      "रोज़ी": 4493,
      "दर्द": 4494,
      "##ination": 4495,
      "समूह": 4496,
      "खुली": 4497,
      "डरो": 4498,
      "मिसाल": 4499,
      "hypocr": 4500,
      "चे": 4501,
      "exce": 4502,
      "pol": 4503,
      "##तन": 4504,
      "##uty": 4505,
      "यूसुफ": 4506,
      "islam": 4507,
      "##ड़ाई": 4508,
      "##लाइन": 4509,
      "##ists": 4510,
      "plain": 4511,
      "भु": 4512,
      "క్": 4513,
      "लाते": 4514,
      "दिखाया": 4515,
      "వచ్చ": 4516,
      "##irt": 4517,
      "रखी": 4518,
      "##चारी": 4519,
      "##atic": 4520,
      "##ason": 4521,
      "unkn": 4522,
      "##he": 4523,
      "प्रवि": 4524,
      "भेजे": 4525,
      "dri": 4526,
      "occ": 4527,
      "अपरा": 4528,
      "##ायम": 4529,
      "##ంటి": 4530,
      "बाग़": 4531,
      "पैर": 4532,
      "अन्ततः": 4533,
      "##load": 4534,
      "##ैर्य": 4535,
      "योग्य": 4536,
      "अक्": 4537,
      "यूँ": 4538,
      "boy": 4539,
      "wrongdo": 4540,
      "मृ": 4541,
      "forever": 4542,
      "धैर्य": 4543,
      "##ॉल": 4544,
      "short": 4545,
      "प्रस": 4546,
      "गुमराह": 4547,
      "घाटे": 4548,
      "एशिया": 4549,
      "అవును": 4550,
      "event": 4551,
      "quot": 4552,
      "री": 4553,
      "##ెం": 4554,
      "रखे": 4555,
      "scripture": 4556,
      "नौ": 4557,
      "##बारा": 4558,
      "few": 4559,
      "##uct": 4560,
      "##ज़ल": 4561,
      "पहचान": 4562,
      "##ించు": 4563,
      "इकट": 4564,
      "##िद": 4565,
      "##ander": 4566,
      "##ह्न": 4567,
      "नियत": 4568,
      "unse": 4569,
      "तेरी": 4570,
      "forbidden": 4571,
      "unknown": 4572,
      "##ives": 4573,
      "suffer": 4574,
      "देखने": 4575,
      "following": 4576,
      "enemy": 4577,
      "easy": 4578,
      "कप": 4579,
      "ము": 4580,
      "##నా": 4581,
      "became": 4582,
      "##ంటు": 4583,
      "permission": 4584,
      "ఆమె": 4585,
      "filter": 4586,
      "poly": 4587,
      "associate": 4588,
      "हिकमत": 4589,
      "टुक": 4590,
      "##्यान": 4591,
      "disp": 4592,
      "believing": 4593,
      "##त्ल": 4594,
      "hope": 4595,
      "##ser": 4596,
      "जिनको": 4597,
      "complete": 4598,
      "##నం": 4599,
      "food": 4600,
      "thanks": 4601,
      "परिवर्तन": 4602,
      "fulf": 4603,
      "मही": 4604,
      "##sp": 4605,
      "noah": 4606,
      "tree": 4607,
      "##ग्री": 4608,
      "along": 4609,
      "forget": 4610,
      "exalted": 4611,
      "कितने": 4612,
      "big": 4613,
      "langu": 4614,
      "रहता": 4615,
      "स्वा": 4616,
      "चैन": 4617,
      "तंग": 4618,
      "##म्प": 4619,
      "##ager": 4620,
      "पड़": 4621,
      "forward": 4622,
      "##ల్ల": 4623,
      "क्लिक": 4624,
      "oper": 4625,
      "##ape": 4626,
      "##क़ी": 4627,
      "muslim": 4628,
      "धन": 4629,
      "##వల": 4630,
      "heed": 4631,
      "नेक": 4632,
      "eng": 4633,
      "write": 4634,
      "location": 4635,
      "cut": 4636,
      "कब": 4637,
      "प्रदर्श": 4638,
      "##asure": 4639,
      "provision": 4640,
      "##fully": 4641,
      "##िरऔन": 4642,
      "##मीद": 4643,
      "strong": 4644,
      "equal": 4645,
      "sac": 4646,
      "enough": 4647,
      "वीडियो": 4648,
      "money": 4649,
      "संर": 4650,
      "दस्तावे": 4651,
      "faces": 4652,
      "##क्रिया": 4653,
      "टे": 4654,
      "##cend": 4655,
      "folders": 4656,
      "कूटशब्द": 4657,
      "##ब्ध": 4658,
      "परहेज़गार": 4659,
      "ज़रा": 4660,
      "##रण": 4661,
      "मोमिनीन": 4662,
      "लोगो": 4663,
      "shit": 4664,
      "##que": 4665,
      "job": 4666,
      "##oto": 4667,
      "severe": 4668,
      "expl": 4669,
      "अनुग्रह": 4670,
      "अवतरित": 4671,
      "కానీ": 4672,
      "हमसे": 4673,
      "available": 4674,
      "net": 4675,
      "sit": 4676,
      "मित्र": 4677,
      "rev": 4678,
      "जांच": 4679,
      "unless": 4680,
      "##irm": 4681,
      "##aps": 4682,
      "##नाक": 4683,
      "prefer": 4684,
      "अगले": 4685,
      "जिससे": 4686,
      "##త్త": 4687,
      "admon": 4688,
      "लूत": 4689,
      "title": 4690,
      "##ायी": 4691,
      "desires": 4692,
      "धो": 4693,
      "नक़": 4694,
      "##लू": 4695,
      "party": 4696,
      "फैला": 4697,
      "sight": 4698,
      "##uge": 4699,
      "##टन": 4700,
      "partners": 4701,
      "उल्": 4702,
      "wronged": 4703,
      "mom": 4704,
      "##icient": 4705,
      "##ari": 4706,
      "ऑंख": 4707,
      "##టకు": 4708,
      "seven": 4709,
      "access": 4710,
      "मामले": 4711,
      "europe": 4712,
      "##लब्ध": 4713,
      "##ier": 4714,
      ");": 4715,
      "##ापित": 4716,
      "submit": 4717,
      "##ann": 4718,
      "garden": 4719,
      "जल्द": 4720,
      "अज्ञ": 4721,
      "मिट्टी": 4722,
      "afflic": 4723,
      "बहुतेरे": 4724,
      "eff": 4725,
      "जानकारी": 4726,
      "##सोस": 4727,
      "##ued": 4728,
      "heard": 4729,
      "##ular": 4730,
      "बच्चे": 4731,
      "field": 4732,
      "bef": 4733,
      "प्रश": 4734,
      "##హ్": 4735,
      "knower": 4736,
      "खाओ": 4737,
      "माफ": 4738,
      "##airs": 4739,
      "अम": 4740,
      "enable": 4741,
      "greater": 4742,
      "बेहिश्त": 4743,
      "स्क्रीन": 4744,
      "_e": 4745,
      "won": 4746,
      "शो": 4747,
      "##kt": 4748,
      "##వే": 4749,
      "##verse": 4750,
      "##reed": 4751,
      "बनाते": 4752,
      "##त्यु": 4753,
      "according": 4754,
      "##ंटर": 4755,
      "##बानी": 4756,
      "##लाइ": 4757,
      "##ung": 4758,
      "सरकश": 4759,
      "स्त्रियों": 4760,
      "bab": 4761,
      "cry": 4762,
      "##स्थित": 4763,
      "killed": 4764,
      "मृत्यु": 4765,
      "med": 4766,
      "##तरा": 4767,
      "##ुद्ध": 4768,
      "conce": 4769,
      "mult": 4770,
      "शक्ति": 4771,
      "##ाई": 4772,
      "##onds": 4773,
      "फ़िरऔन": 4774,
      "/%": 4775,
      "గొ": 4776,
      "मौजूदा": 4777,
      "install": 4778,
      "##umn": 4779,
      "blessings": 4780,
      "दस्तावेज़": 4781,
      "jes": 4782,
      "bounty": 4783,
      "दौर": 4784,
      "##rica": 4785,
      "chr": 4786,
      "least": 4787,
      "कॉन्": 4788,
      "within": 4789,
      "अहले": 4790,
      "खे": 4791,
      "once": 4792,
      "लानेवालो": 4793,
      "transl": 4794,
      "गलत": 4795,
      "##ident": 4796,
      "share": 4797,
      "##ched": 4798,
      "जीवित": 4799,
      "##par": 4800,
      "उम्मीद": 4801,
      "either": 4802,
      "year": 4803,
      "##umb": 4804,
      "##cription": 4805,
      "ग़ौर": 4806,
      "##नीय": 4807,
      "souls": 4808,
      "बन्दे": 4809,
      "authority": 4810,
      "##कू": 4811,
      "screen": 4812,
      "सरकशी": 4813,
      "ge": 4814,
      "regard": 4815,
      "कैसा": 4816,
      "running": 4817,
      "चख": 4818,
      "पे": 4819,
      "काफिरों": 4820,
      "अत्याचार": 4821,
      "##ग़ैर": 4822,
      "##unk": 4823,
      "लौटा": 4824,
      "अभिले": 4825,
      "control": 4826,
      "##ोग्राम": 4827,
      "followed": 4828,
      "jesus": 4829,
      "तुम्हे": 4830,
      "dom": 4831,
      "खिला": 4832,
      "शब्द": 4833,
      "returned": 4834,
      "mention": 4835,
      "लाल": 4836,
      "लाने": 4837,
      "सीमा": 4838,
      "सुबह": 4839,
      "##तिश": 4840,
      "sle": 4841,
      "##फार": 4842,
      "यहूद": 4843,
      "आमाल": 4844,
      "कने": 4845,
      "instead": 4846,
      "##षा": 4847,
      "मुक़ाबले": 4848,
      "फोन": 4849,
      "ख़ौ": 4850,
      "##मार": 4851,
      "खाते": 4852,
      "कृत": 4853,
      "मोमिन": 4854,
      "deal": 4855,
      "track": 4856,
      "subject": 4857,
      "top": 4858,
      "सामान्य": 4859,
      "తెలుసు": 4860,
      "_o": 4861,
      "हार": 4862,
      "కోసం": 4863,
      "नक़ल": 4864,
      "नर": 4865,
      "अनुसर": 4866,
      "अनुसरण": 4867,
      "प्रवेश": 4868,
      "##వచ్చ": 4869,
      "public": 4870,
      "खड़े": 4871,
      "##lt": 4872,
      "##bed": 4873,
      "join": 4874,
      "cam": 4875,
      "सारी": 4876,
      "##दन": 4877,
      "pack": 4878,
      "ज़ुल्म": 4879,
      "##ai": 4880,
      "लाओ": 4881,
      "##घ्र": 4882,
      "##ज़िर": 4883,
      "##ets": 4884,
      "##ually": 4885,
      "##టా": 4886,
      "##मानी": 4887,
      "डाले": 4888,
      "noble": 4889,
      "एक्स": 4890,
      "drive": 4891,
      "प्लगइन": 4892,
      "perform": 4893,
      "##ktop": 4894,
      "विन्यास": 4895,
      "सुनता": 4896,
      "कुफ्र": 4897,
      "प्यार": 4898,
      "fem": 4899,
      "##यें": 4900,
      "दोबारा": 4901,
      "moon": 4902,
      "##ाबे": 4903,
      "शीघ्र": 4904,
      "क़ाब": 4905,
      "##एम": 4906,
      "strength": 4907,
      "बस्ती": 4908,
      "पालने": 4909,
      "hidden": 4910,
      "##स्य": 4911,
      "##ron": 4912,
      "लिखा": 4913,
      "##ales": 4914,
      "##ज़ार": 4915,
      "secure": 4916,
      "card": 4917,
      "एल": 4918,
      "##నే": 4919,
      "friends": 4920,
      "##body": 4921,
      "warner": 4922,
      "##उन": 4923,
      "अवज्ञा": 4924,
      "##चना": 4925,
      "प्रबंध": 4926,
      "पूर्": 4927,
      "उतारा": 4928,
      "##ism": 4929,
      "glad": 4930,
      "soft": 4931,
      "someone": 4932,
      "##सारिक": 4933,
      "निशानियों": 4934,
      "सांसारिक": 4935,
      "भेजें": 4936,
      "स्थानी": 4937,
      "cust": 4938,
      "क़ुब": 4939,
      "##वधान": 4940,
      "##दिष्ट": 4941,
      "detail": 4942,
      "autom": 4943,
      "honour": 4944,
      "single": 4945,
      "क़ुबूल": 4946,
      "जानवर": 4947,
      "application": 4948,
      "बनी": 4949,
      "ను": 4950,
      "##ఖ్య": 4951,
      "##ift": 4952,
      "घटना": 4953,
      "walk": 4954,
      "##ियम": 4955,
      "अधिकतर": 4956,
      "request": 4957,
      "swear": 4958,
      "చాలా": 4959,
      "##वाली": 4960,
      "during": 4961,
      "उच्च": 4962,
      "reason": 4963,
      "कहता": 4964,
      "स्थानीय": 4965,
      "मज़ा": 4966,
      "यूर": 4967,
      "aud": 4968,
      "अके": 4969,
      "##త్ర": 4970,
      "##राब": 4971,
      "पूर्व": 4972,
      "received": 4973,
      "चिह्न": 4974,
      "##धारित": 4975,
      "వారు": 4976,
      "parents": 4977,
      "sufficient": 4978,
      "lic": 4979,
      "आशा": 4980,
      "##రం": 4981,
      "white": 4982,
      "परस": 4983,
      "yourself": 4984,
      "different": 4985,
      "अभिलेख": 4986,
      "दुश्": 4987,
      "mid": 4988,
      "##जिए": 4989,
      "दुखद": 4990,
      "नई": 4991,
      "##uration": 4992,
      "corru": 4993,
      "##ium": 4994,
      "##लग्न": 4995,
      "unseen": 4996,
      "##ल्ट": 4997,
      "##ियन": 4998,
      "हटकर": 4999,
      "offer": 5000,
      "इसराईल": 5001,
      "archive": 5002,
      "सिर": 5003,
      "##ech": 5004,
      "##फे": 5005,
      "##ानि": 5006,
      "##वरण": 5007,
      "ख़र्च": 5008,
      "##--": 5009,
      "ship": 5010,
      "desktop": 5011,
      "worlds": 5012,
      "second": 5013,
      "url": 5014,
      "##कती": 5015,
      "##शु": 5016,
      "వెళ్ళ": 5017,
      "hor": 5018,
      "lim": 5019,
      "घड़ी": 5020,
      "##ंप": 5021,
      "##ंचा": 5022,
      "प्रे": 5023,
      "उपलब्ध": 5024,
      "दरवा": 5025,
      "కలి": 5026,
      "arm": 5027,
      "प्रोग्राम": 5028,
      "बेटा": 5029,
      "rejected": 5030,
      "polythe": 5031,
      "##sed": 5032,
      "living": 5033,
      "##भाग": 5034,
      "कठोर": 5035,
      "##ाने": 5036,
      "##రే": 5037,
      "कहेगा": 5038,
      "काफ़िरों": 5039,
      "##मद": 5040,
      "चुप": 5041,
      "space": 5042,
      "position": 5043,
      "##मु": 5044,
      "warning": 5045,
      "##ump": 5046,
      "##न्ध": 5047,
      "max": 5048,
      "label": 5049,
      "ఉన్నాయి": 5050,
      "सत्या": 5051,
      "org": 5052,
      "##ouses": 5053,
      "##ार्ड": 5054,
      "ख़ुश": 5055,
      "ज्ञापन": 5056,
      "example": 5057,
      "आपने": 5058,
      "##ार्थ": 5059,
      "_l": 5060,
      "font": 5061,
      "हद": 5062,
      "##हार": 5063,
      "##ियार": 5064,
      "मानते": 5065,
      "कई": 5066,
      "अंग": 5067,
      "आते": 5068,
      "बिगा": 5069,
      "बाल": 5070,
      "##दती": 5071,
      "##vert": 5072,
      "preview": 5073,
      "##हरे": 5074,
      "coll": 5075,
      "अद्य": 5076,
      "##rew": 5077,
      "##urity": 5078,
      "##cribe": 5079,
      "अक्षम": 5080,
      "सप": 5081,
      "##केत": 5082,
      "##రించి": 5083,
      "dad": 5084,
      "duty": 5085,
      "##रिक": 5086,
      "रोज़ी": 5087,
      "bestowed": 5088,
      "confirm": 5089,
      "local": 5090,
      "सुरक्षित": 5091,
      "ध्यान": 5092,
      "##िव": 5093,
      "देगें": 5094,
      "अनुसार": 5095,
      "परसतिश": 5096,
      "अदा": 5097,
      "छिप": 5098,
      "वृ": 5099,
      "grow": 5100,
      "अवधि": 5101,
      "appro": 5102,
      "##ందుకు": 5103,
      "falsehood": 5104,
      "##बूल": 5105,
      "reck": 5106,
      "सीधा": 5107,
      "looking": 5108,
      "##साद": 5109,
      "class": 5110,
      "images": 5111,
      "##with": 5112,
      "##inal": 5113,
      "दिखाता": 5114,
      "खाना": 5115,
      "expect": 5116,
      "worsh": 5117,
      "शामिल": 5118,
      "worshipp": 5119,
      "मुला": 5120,
      "##ught": 5121,
      "##వచ్చు": 5122,
      "##aut": 5123,
      "##pi": 5124,
      "##thy": 5125,
      "##ication": 5126,
      "आपका": 5127,
      "संपादक": 5128,
      "##तिम": 5129,
      "वार": 5130,
      "##ged": 5131,
      "##फ़ि": 5132,
      "small": 5133,
      "लं": 5134,
      "लेंगे": 5135,
      "##क्षक": 5136,
      "##ract": 5137,
      "wis": 5138,
      "మార్": 5139,
      "lad": 5140,
      "##फ्त": 5141,
      "##చు": 5142,
      "पहली": 5143,
      "guil": 5144,
      "वर्तमान": 5145,
      "##bl": 5146,
      "हमको": 5147,
      "अंतिम": 5148,
      "##हाद": 5149,
      "हाथों": 5150,
      "##పి": 5151,
      "##wh": 5152,
      "remo": 5153,
      "हेतु": 5154,
      "##न्ना": 5155,
      "jew": 5156,
      "commanded": 5157,
      "cent": 5158,
      "pie": 5159,
      "##ंश": 5160,
      "संलग्न": 5161,
      "विचार": 5162,
      "सुनते": 5163,
      "daught": 5164,
      "jack": 5165,
      "వే": 5166,
      "##धन": 5167,
      "weak": 5168,
      "ann": 5169,
      "anim": 5170,
      "##work": 5171,
      "gnome": 5172,
      "jose": 5173,
      "परन्तु": 5174,
      "दौरान": 5175,
      "##rog": 5176,
      "reckon": 5177,
      "शत्र": 5178,
      "##ession": 5179,
      "उतार": 5180,
      "शत्रु": 5181,
      "##ండ": 5182,
      "##ex": 5183,
      "##रो": 5184,
      "##आर": 5185,
      "##क़त": 5186,
      "bro": 5187,
      "vi": 5188,
      "drop": 5189,
      "कुफ़": 5190,
      "custom": 5191,
      "license": 5192,
      "##wise": 5193,
      "छुपा": 5194,
      "ख़र्च": 5195,
      "చూడ": 5196,
      "फे": 5197,
      "##इस": 5198,
      "##है": 5199,
      "##ateg": 5200,
      "फ़रिश्ते": 5201,
      "तारी": 5202,
      "ఇప్పుడు": 5203,
      "##తో": 5204,
      "upd": 5205,
      "सामग्री": 5206,
      "##ష్ట": 5207,
      "joseph": 5208,
      "बर्": 5209,
      "हँ": 5210,
      "oath": 5211,
      "##ply": 5212,
      "##चेत": 5213,
      "column": 5214,
      "##augh": 5215,
      "भग": 5216,
      "##ెట్": 5217,
      "exc": 5218,
      "सिखा": 5219,
      "phone": 5220,
      "##ज्ज": 5221,
      "measure": 5222,
      "refuge": 5223,
      "prostrate": 5224,
      "##ying": 5225,
      "musa": 5226,
      "अर": 5227,
      "पेट": 5228,
      "obser": 5229,
      "बढ़कर": 5230,
      "hi": 5231,
      "##दस्त": 5232,
      "seem": 5233,
      "कुफ़्र": 5234,
      "చి": 5235,
      "##न्स": 5236,
      "guides": 5237,
      "लान": 5238,
      "blessed": 5239,
      ")!": 5240,
      "काल": 5241,
      "मारे": 5242,
      "सन्द": 5243,
      "##त्त": 5244,
      "इस्": 5245,
      "trave": 5246,
      "authent": 5247,
      "wisdom": 5248,
      "नज़र": 5249,
      "##थम": 5250,
      "मुख": 5251,
      "prepared": 5252,
      "आती": 5253,
      "desp": 5254,
      "wherein": 5255,
      "inher": 5256,
      "साइ": 5257,
      "लिखने": 5258,
      "अज": 5259,
      "मज": 5260,
      "##चाल": 5261,
      "##ृति": 5262,
      "इस्ते": 5263,
      "ज़िम्मे": 5264,
      "christ": 5265,
      "##ored": 5266,
      "##ूमि": 5267,
      "rather": 5268,
      "##ister": 5269,
      "photo": 5270,
      "passed": 5271,
      "प्रकाशना": 5272,
      "लानत": 5273,
      "छुट": 5274,
      "##యో": 5275,
      "##बूत": 5276,
      "अनुप्र": 5277,
      "बाहम": 5278,
      "आउट": 5279,
      "टी": 5280,
      "##नो": 5281,
      "int": 5282,
      "विभ": 5283,
      "reply": 5284,
      "मस": 5285,
      "##oo": 5286,
      "##cks": 5287,
      "युद्ध": 5288,
      "इकट्ठा": 5289,
      "whome": 5290,
      "hypocrites": 5291,
      "whomever": 5292,
      "सारा": 5293,
      "सचेत": 5294,
      "अनुप्रयोग": 5295,
      "##बन्द": 5296,
      "seized": 5297,
      "अनुक": 5298,
      "फ़ॉन्ट": 5299,
      "##ंघ": 5300,
      "##ख्तेयार": 5301,
      "##वाव": 5302,
      "alm": 5303,
      "##ूंगा": 5304,
      "later": 5305,
      "fol": 5306,
      "laugh": 5307,
      "काश": 5308,
      "##change": 5309,
      "previous": 5310,
      "increase": 5311,
      "##दारी": 5312,
      "##थि": 5313,
      "##ster": 5314,
      "भगवान": 5315,
      "फ़िल्टर": 5316,
      "बुरे": 5317,
      "एहद": 5318,
      "ay": 5319,
      "##come": 5320,
      "##టు": 5321,
      "##खे": 5322,
      "sust": 5323,
      "ज़्या": 5324,
      "समर्थन": 5325,
      "point": 5326,
      "mad": 5327,
      "एन": 5328,
      "ईमानवाले": 5329,
      "##र्वक": 5330,
      "html": 5331,
      "परी": 5332,
      "जिहाद": 5333,
      "చేస్తు": 5334,
      "बक": 5335,
      "##int": 5336,
      "मूल्य": 5337,
      "##ంచు": 5338,
      "feed": 5339,
      "post": 5340,
      "##ils": 5341,
      "खाने": 5342,
      "##कृत": 5343,
      "ready": 5344,
      "ड्र": 5345,
      "##शुदा": 5346,
      "past": 5347,
      "सात": 5348,
      "मिट": 5349,
      "general": 5350,
      "पिछले": 5351,
      "इच्छ": 5352,
      "कितनी": 5353,
      "print": 5354,
      "bug": 5355,
      "table": 5356,
      "whole": 5357,
      "अर्ज़": 5358,
      "##षित": 5359,
      "గురించి": 5360,
      "##दर": 5361,
      "##भव": 5362,
      "##वियों": 5363,
      "##ल्स": 5364,
      "आता": 5365,
      "##eness": 5366,
      "సమ": 5367,
      "##uc": 5368,
      "कुरान": 5369,
      "निष्": 5370,
      "##लोड": 5371,
      "इस्तेमाल": 5372,
      "jour": 5373,
      "##సా": 5374,
      "##लोकन": 5375,
      "क्रिया": 5376,
      "supported": 5377,
      "रखना": 5378,
      "africa": 5379,
      "ती": 5380,
      "रद्द": 5381,
      "చెప్ప": 5382,
      "configuration": 5383,
      "लॉग": 5384,
      "language": 5385,
      "भारी": 5386,
      "श्री": 5387,
      "##tain": 5388,
      "abide": 5389,
      "సంఖ్య": 5390,
      "क़ु": 5391,
      "लेता": 5392,
      "proble": 5393,
      "##pend": 5394,
      "पूछो": 5395,
      "पहाड़": 5396,
      "##ax": 5397,
      "##जात": 5398,
      "course": 5399,
      "फैसला": 5400,
      "साथी": 5401,
      "spread": 5402,
      "benefit": 5403,
      "इसको": 5404,
      "साफ़": 5405,
      "pleased": 5406,
      "automatic": 5407,
      "##िन्न": 5408,
      "priv": 5409,
      "देखें": 5410,
      "महान": 5411,
      "छोड़कर": 5412,
      "_h": 5413,
      "willed": 5414,
      "adam": 5415,
      ")...": 5416,
      "##gra": 5417,
      "##ताव": 5418,
      "abode": 5419,
      "draw": 5420,
      "cra": 5421,
      "guy": 5422,
      "आसमानों": 5423,
      "చేయ": 5424,
      "orig": 5425,
      "##ients": 5426,
      "ब्ल": 5427,
      "##ule": 5428,
      "सावधान": 5429,
      "##ili": 5430,
      "##కుంటు": 5431,
      "caused": 5432,
      "waiting": 5433,
      "जादूगर": 5434,
      "##pr": 5435,
      "##्रष्ट": 5436,
      "रहमान": 5437,
      "##ades": 5438,
      "fair": 5439,
      "heav": 5440,
      "incl": 5441,
      "सफलता": 5442,
      "तयशुदा": 5443,
      "names": 5444,
      "गा": 5445,
      "##tion": 5446,
      "##ories": 5447,
      "##itude": 5448,
      "मानो": 5449,
      "##rible": 5450,
      "serve": 5451,
      "##ంటే": 5452,
      "विशेष": 5453,
      "आरंभ": 5454,
      "##claim": 5455,
      "దా": 5456,
      "##क्रम": 5457,
      "memo": 5458,
      "दर्दनाक": 5459,
      "रास्ता": 5460,
      "##color": 5461,
      "వచ్చింది": 5462,
      "मॉ": 5463,
      "क़ाद": 5464,
      "अज्ञात": 5465,
      "क़ादिर": 5466,
      "दशा": 5467,
      "राहे": 5468,
      "फ़ाइलें": 5469,
      "lawful": 5470,
      "##परस्त": 5471,
      "burning": 5472,
      "earned": 5473,
      "level": 5474,
      "ध्व": 5475,
      "बिल": 5476,
      "arr": 5477,
      "apostles": 5478,
      "चढ़": 5479,
      "##इश": 5480,
      "##क्षम": 5481,
      "glor": 5482,
      "sil": 5483,
      "खी": 5484,
      "##ताज": 5485,
      "जाएं": 5486,
      "खुला": 5487,
      "##ेक्ट": 5488,
      "##ds": 5489,
      "रहना": 5490,
      "ज़ुल्म": 5491,
      "function": 5492,
      "dear": 5493,
      "उत्": 5494,
      "श्रे": 5495,
      "జా": 5496,
      "disbelief": 5497,
      "muslims": 5498,
      "लाभ": 5499,
      "turns": 5500,
      "सुनो": 5501,
      "device": 5502,
      "encry": 5503,
      "बुद्धि": 5504,
      "##ribution": 5505,
      "process": 5506,
      "week": 5507,
      "cance": 5508,
      "मरने": 5509,
      "summ": 5510,
      "##फ़ॉ": 5511,
      "faithful": 5512,
      "conceal": 5513,
      "तौर": 5514,
      "decl": 5515,
      "निर्दिष्ट": 5516,
      "व्यव": 5517,
      "पूर्वाव": 5518,
      "पूर्वावलोकन": 5519,
      "_b": 5520,
      "##డం": 5521,
      "whatsoever": 5522,
      "थीं": 5523,
      "सरपरस्त": 5524,
      "occur": 5525,
      "कॉन्फ़ि": 5526,
      "arab": 5527,
      "diff": 5528,
      "##पित": 5529,
      "rebe": 5530,
      "अपमान": 5531,
      "नु": 5532,
      "मं": 5533,
      "##enance": 5534,
      "रखने": 5535,
      "जैसी": 5536,
      "code": 5537,
      "dust": 5538,
      "##ौल": 5539,
      "##ण्ड": 5540,
      "प्रेष": 5541,
      "ele": 5542,
      "else": 5543,
      "bat": 5544,
      "rich": 5545,
      "सक्षम": 5546,
      "guys": 5547,
      "baby": 5548,
      "guilty": 5549,
      "बॉ": 5550,
      "##बख्त": 5551,
      "lik": 5552,
      "दरिया": 5553,
      "एहसान": 5554,
      "देकर": 5555,
      "theirs": 5556,
      "उदार": 5557,
      "##ng": 5558,
      "ste": 5559,
      "इन्सान": 5560,
      "charact": 5561,
      "grieve": 5562,
      "तिथि": 5563,
      "पैरवी": 5564,
      "कृतज्ञ": 5565,
      "ten": 5566,
      "होंगी": 5567,
      "डराने": 5568,
      "हलाक": 5569,
      "fine": 5570,
      "##uh": 5571,
      "##under": 5572,
      "##ఫ్": 5573,
      "पाबन्द": 5574,
      "आवश्य": 5575,
      "ld": 5576,
      "जे": 5577,
      "व्या": 5578,
      "##गू": 5579,
      "manager": 5580,
      "arrog": 5581,
      "यूरोप": 5582,
      "खड़े": 5583,
      "गिन": 5584,
      "##ख़बरी": 5585,
      "lear": 5586,
      "seeing": 5587,
      "##bar_": 5588,
      "pa": 5589,
      "रि": 5590,
      "glory": 5591,
      "audio": 5592,
      "##న్నారు": 5593,
      "losers": 5594,
      "##फ़र": 5595,
      "tom": 5596,
      "befall": 5597,
      "देखता": 5598,
      "}\"": 5599,
      "inte": 5600,
      "आएगा": 5601,
      "remembr": 5602,
      "अत्याचारी": 5603,
      "##బ్బ": 5604,
      "\"{": 5605,
      "लक्ष": 5606,
      "admit": 5607,
      "selection": 5608,
      "वारिस": 5609,
      "##ises": 5610,
      "फज़ल": 5611,
      "लगी": 5612,
      "करा": 5613,
      "वेब": 5614,
      "remote": 5615,
      "डाटा": 5616,
      "session": 5617,
      "सेना": 5618,
      "##ching": 5619,
      "blood": 5620,
      "वाक़िफ़": 5621,
      "ढूंढें": 5622,
      "remembrance": 5623,
      "తి": 5624,
      "##ोरी": 5625,
      "##cious": 5626,
      "सम्ब": 5627,
      "treat": 5628,
      "यहां": 5629,
      "स्क": 5630,
      "पथभ": 5631,
      "low": 5632,
      "##రణ": 5633,
      "##ps": 5634,
      "everyone": 5635,
      "సా": 5636,
      "चाहेंगे": 5637,
      "da": 5638,
      "बल": 5639,
      "sends": 5640,
      "ignor": 5641,
      "मना": 5642,
      "“%": 5643,
      "##पुट": 5644,
      "ज़रिए": 5645,
      "wonder": 5646,
      "simil": 5647,
      "प्रतीक्षा": 5648,
      "కుడి": 5649,
      "argument": 5650,
      "##गो": 5651,
      "##चों": 5652,
      "काफ़िर": 5653,
      "anc": 5654,
      "##स्करण": 5655,
      "##रेशन": 5656,
      "maybe": 5657,
      "उठाए": 5658,
      "दृष्टि": 5659,
      "_w": 5660,
      "संकेत": 5661,
      "दोज़": 5662,
      "exec": 5663,
      "रास्ते": 5664,
      "contacts": 5665,
      "kid": 5666,
      "ren": 5667,
      "बैक": 5668,
      "##्रीका": 5669,
      "service": 5670,
      "uri": 5671,
      "favor": 5672,
      "guardian": 5673,
      "फाय": 5674,
      "thir": 5675,
      "exchange": 5676,
      "accepted": 5677,
      "target": 5678,
      "पुस्तिका": 5679,
      "polytheists": 5680,
      "virt": 5681,
      "##टका": 5682,
      "##वर्ड": 5683,
      "##fr": 5684,
      "apart": 5685,
      "judgement": 5686,
      "अला": 5687,
      "बटन": 5688,
      "##కే": 5689,
      "आख़ेरत": 5690,
      "symb": 5691,
      "wrongdoers": 5692,
      "inherit": 5693,
      "##फ़ा": 5694,
      "##ital": 5695,
      "##pel": 5696,
      "compass": 5697,
      "ईमेल": 5698,
      "##ero": 5699,
      "जिनकी": 5700,
      "making": 5701,
      "तसबीह": 5702,
      "क़दम": 5703,
      "తీ": 5704,
      "इसपर": 5705,
      "speech": 5706,
      "reached": 5707,
      "##स्पर": 5708,
      "poor": 5709,
      "times": 5710,
      "00": 5711,
      "##सवा": 5712,
      "##uses": 5713,
      "##తుంది": 5714,
      "संपादित": 5715,
      "exists": 5716,
      "अंदर": 5717,
      "##right": 5718,
      "##bers": 5719,
      "black": 5720,
      "returns": 5721,
      "proofs": 5722,
      "jews": 5723,
      "esc": 5724,
      "security": 5725,
      "##ोटो": 5726,
      "##లేదు": 5727,
      "hus": 5728,
      "##बू": 5729,
      "fore": 5730,
      "terrible": 5731,
      "अलब": 5732,
      "##नट": 5733,
      "##fort": 5734,
      "##ony": 5735,
      "##िये": 5736,
      "##asts": 5737,
      "hasten": 5738,
      "fulfill": 5739,
      "block": 5740,
      "descend": 5741,
      "specified": 5742,
      "fruits": 5743,
      "आम": 5744,
      "##lling": 5745,
      "मुर्द": 5746,
      "दिनों": 5747,
      "backs": 5748,
      "बरकत": 5749,
      "गुज़र": 5750,
      "కలిగి": 5751,
      "जन": 5752,
      "प्रकट": 5753,
      "दाख़": 5754,
      "room": 5755,
      "press": 5756,
      "##कारा": 5757,
      "clean": 5758,
      "##िप्ट": 5759,
      "determ": 5760,
      "homes": 5761,
      "जिसपर": 5762,
      "wanted": 5763,
      "##తం": 5764,
      "cattle": 5765,
      "width": 5766,
      "'.": 5767,
      "ट्रै": 5768,
      "##reet": 5769,
      "साब": 5770,
      "plot": 5771,
      "burden": 5772,
      "భా": 5773,
      "provide": 5774,
      "एस": 5775,
      "##ोर्ट": 5776,
      "##obey": 5777,
      "disobey": 5778,
      "सूर": 5779,
      "##ाहि": 5780,
      "girl": 5781,
      "##టర్": 5782,
      "संस्करण": 5783,
      "taking": 5784,
      "##haps": 5785,
      "कुदरत": 5786,
      "##con": 5787,
      "##ern": 5788,
      "विस्त": 5789,
      "fix": 5790,
      "menu": 5791,
      "పొంద": 5792,
      "##र्ज": 5793,
      "सिं": 5794,
      "##पूर्ण": 5795,
      "15": 5796,
      "taught": 5797,
      "##ison": 5798,
      "##lex": 5799,
      "स्तर": 5800,
      "निकाह": 5801,
      "खैर": 5802,
      "contain": 5803,
      "हलाल": 5804,
      "mer": 5805,
      "und": 5806,
      "patience": 5807,
      "अफ्रीका": 5808,
      "hurt": 5809,
      "अद्यतन": 5810,
      "मक्का": 5811,
      "perhaps": 5812,
      "असम": 5813,
      "windows": 5814,
      "brings": 5815,
      "##िता": 5816,
      "##समें": 5817,
      "##ee": 5818,
      "respect": 5819,
      "##पूर्वक": 5820,
      "utter": 5821,
      "tag": 5822,
      "##स्प": 5823,
      "साफ़": 5824,
      "foot": 5825,
      "recite": 5826,
      "##ike": 5827,
      "पाकी": 5828,
      "myself": 5829,
      "##ोजन": 5830,
      "placed": 5831,
      "दिखाई": 5832,
      "दूसरा": 5833,
      "भटक": 5834,
      "కే": 5835,
      "##amed": 5836,
      "हाज़िर": 5837,
      "100": 5838,
      "दबा": 5839,
      "##yle": 5840,
      "##utes": 5841,
      "##बरदस्त": 5842,
      "teach": 5843,
      "मौजिज़": 5844,
      "repentance": 5845,
      "six": 5846,
      "download": 5847,
      "anj": 5848,
      "assign": 5849,
      "kingdom": 5850,
      "effect": 5851,
      "खिस": 5852,
      "बजा": 5853,
      "##xy": 5854,
      "##uta": 5855,
      "cloud": 5856,
      "डाउन": 5857,
      "insert": 5858,
      "ट्र": 5859,
      "##light": 5860,
      "##ब्ल": 5861,
      "bow": 5862,
      "##band": 5863,
      "wants": 5864,
      "multip": 5865,
      "##ott": 5866,
      "##ారం": 5867,
      "दाख़िल": 5868,
      "##ging": 5869,
      "since": 5870,
      "बैठक": 5871,
      "आराम": 5872,
      "doom": 5873,
      "बस्तियों": 5874,
      "replied": 5875,
      "granted": 5876,
      "मिनट": 5877,
      "sending": 5878,
      "insp": 5879,
      "##alog": 5880,
      "##रात": 5881,
      "yours": 5882,
      "लाया": 5883,
      "प्रविष्ट": 5884,
      "##नियों": 5885,
      "##els": 5886,
      "अनुस्म": 5887,
      "గొన్న": 5888,
      "rad": 5889,
      "wall": 5890,
      "दाहि": 5891,
      "వ్య": 5892,
      "separ": 5893,
      "जिनमें": 5894,
      "throne": 5895,
      "ప్రతి": 5896,
      "##षण": 5897,
      "आसान": 5898,
      "pure": 5899,
      "सत्र": 5900,
      "##लि": 5901,
      "दिला": 5902,
      "getting": 5903,
      "bound": 5904,
      "पूज": 5905,
      "doesn": 5906,
      "उपस्थित": 5907,
      "prophets": 5908,
      "गये": 5909,
      "दह": 5910,
      "glob": 5911,
      "संपादन": 5912,
      "darkness": 5913,
      "फ्ल": 5914,
      "मज़ा": 5915,
      "మంచి": 5916,
      "आपकी": 5917,
      "ध्वनि": 5918,
      "##ిత": 5919,
      "प्रत": 5920,
      "blog": 5921,
      "spl": 5922,
      "बेहश्त": 5923,
      "घं": 5924,
      "ఎవ": 5925,
      "dece": 5926,
      "##कारों": 5927,
      "bond": 5928,
      "दरख्त": 5929,
      "बताओ": 5930,
      "##velop": 5931,
      "sustenance": 5932,
      "घड़": 5933,
      "ठहर": 5934,
      "तंत्र": 5935,
      "##मित": 5936,
      "##osen": 5937,
      "पालन": 5938,
      "02": 5939,
      "ब्रा": 5940,
      "##लै": 5941,
      "समूद": 5942,
      "##ुत्": 5943,
      "वैध": 5944,
      "प्रारूप": 5945,
      "समर्थित": 5946,
      "birth": 5947,
      "मस्": 5948,
      "ख़ैर": 5949,
      "##bs": 5950,
      "తెలి": 5951,
      "appointment": 5952,
      "ख़ौफ": 5953,
      "software": 5954,
      "इस्लाम": 5955,
      "अलबत्ता": 5956,
      "##लिस": 5957,
      "करम": 5958,
      "##ज़े": 5959,
      "अगरचे": 5960,
      "बिगाड़": 5961,
      "husband": 5962,
      "चढ़": 5963,
      "सीडी": 5964,
      "replace": 5965,
      "असमर्थ": 5966,
      "उम": 5967,
      "పే": 5968,
      "##end": 5969,
      "##ered": 5970,
      "abs": 5971,
      "डिफ़ॉ": 5972,
      "properties": 5973,
      "folk": 5974,
      "दू": 5975,
      "रास्त": 5976,
      "##यंत्र": 5977,
      "औरतें": 5978,
      "पथभ्रष्ट": 5979,
      "naught": 5980,
      "sort": 5981,
      "uh": 5982,
      "अर्थ": 5983,
      "సరే": 5984,
      "##ుంది": 5985,
      "प्रार्थ": 5986,
      "देश": 5987,
      "alarm": 5988,
      "होगे": 5989,
      "##raid": 5990,
      "खुले": 5991,
      "इच्छा": 5992,
      "मैने": 5993,
      "##ries": 5994,
      "##फ़ी": 5995,
      "चीज़ों": 5996,
      "काफी": 5997,
      "डिफ़ॉल्ट": 5998,
      "##य्य": 5999,
      "nice": 6000,
      "पिला": 6001,
      "changed": 6002,
      "दूँगा": 6003,
      "anjuta": 6004,
      "क़रीब": 6005,
      "beaut": 6006,
      "संस्थ": 6007,
      "whenever": 6008,
      "whomsoever": 6009,
      "continue": 6010,
      "चिह्नित": 6011,
      "केडी": 6012,
      "क़िस्म": 6013,
      "पुकारते": 6014,
      "उत्तर": 6015,
      "टैब": 6016,
      "दोज़ख़": 6017,
      "హే": 6018,
      "##ील": 6019,
      "##hold": 6020,
      "स्त्री": 6021,
      "connection": 6022,
      "महीने": 6023,
      "forgot": 6024,
      "quick": 6025,
      "##ification": 6026,
      "बच्चों": 6027,
      "विरुद्ध": 6028,
      "मुलाकात": 6029,
      "इंच": 6030,
      "क़रार": 6031,
      "##కొ": 6032,
      "##reme": 6033,
      "##काम": 6034,
      "अधिकतम": 6035,
      "मददगार": 6036,
      "शीर्षक": 6037,
      "':": 6038,
      "कमी": 6039,
      "రా": 6040,
      "##पट": 6041,
      "ang": 6042,
      "##क्सी": 6043,
      "समझा": 6044,
      "फरिश्ते": 6045,
      "business": 6046,
      "ldap": 6047,
      "दुश्मन": 6048,
      "compassion": 6049,
      "\\\\": 6050,
      "##चन": 6051,
      "चुना": 6052,
      "##ట్టు": 6053,
      "global": 6054,
      "इरा": 6055,
      "पनाह": 6056,
      "bell": 6057,
      "witnesses": 6058,
      "मामला": 6059,
      "journe": 6060,
      "प्रार्थना": 6061,
      "(.": 6062,
      "फें": 6063,
      "##ior": 6064,
      "##iod": 6065,
      "feet": 6066,
      "tasks": 6067,
      "enjoin": 6068,
      "అవ": 6069,
      "పె": 6070,
      "justice": 6071,
      "flag": 6072,
      "##ogn": 6073,
      "बढ़ा": 6074,
      "सार": 6075,
      "?'": 6076,
      "five": 6077,
      "dream": 6078,
      "tham": 6079,
      "करत": 6080,
      "##ented": 6081,
      "chosen": 6082,
      "period": 6083,
      "schem": 6084,
      "नज़": 6085,
      "##स्या": 6086,
      "shown": 6087,
      "stead": 6088,
      "चाहें": 6089,
      "fab": 6090,
      "##ising": 6091,
      "प्रशा": 6092,
      "afraid": 6093,
      "##्ताह": 6094,
      "##igr": 6095,
      "syn": 6096,
      "assured": 6097,
      "गि": 6098,
      "नाह": 6099,
      "ज़बरदस्त": 6100,
      "##atter": 6101,
      "देखोगे": 6102,
      "prayers": 6103,
      "पुरुषों": 6104,
      "houses": 6105,
      "మి": 6106,
      "leg": 6107,
      "lam": 6108,
      "बग": 6109,
      "##ैत": 6110,
      "##iles": 6111,
      "##ियत": 6112,
      "पूछा": 6113,
      "मुख्य": 6114,
      "##oom": 6115,
      "proclaim": 6116,
      "description": 6117,
      "महिला": 6118,
      "respite": 6119,
      "ब्र": 6120,
      "toolbar": 6121,
      "उतर": 6122,
      "प्रभाव": 6123,
      "ears": 6124,
      "##weather": 6125,
      "destination": 6126,
      "holy": 6127,
      "sleep": 6128,
      "dam": 6129,
      "##port": 6130,
      "कॉल": 6131,
      "आख": 6132,
      "##सूस": 6133,
      "spir": 6134,
      "ఉంటుంది": 6135,
      "reckoning": 6136,
      "పరి": 6137,
      "oft": 6138,
      "##ately": 6139,
      "bookm": 6140,
      "valid": 6141,
      "बूझ": 6142,
      "आय": 6143,
      "deleted": 6144,
      "##abled": 6145,
      "रोज़": 6146,
      "पुकारा": 6147,
      "हटाएँ": 6148,
      "problem": 6149,
      "##बो": 6150,
      "##लेट": 6151,
      "निर्धारित": 6152,
      "आज्ञाकारी": 6153,
      "brothers": 6154,
      "_u": 6155,
      "चेह": 6156,
      "हॉ": 6157,
      "##ंसा": 6158,
      "##ూర్": 6159,
      "##ुमा": 6160,
      "##iding": 6161,
      "disable": 6162,
      "##वीर": 6163,
      "##board": 6164,
      "छुटकारा": 6165,
      "##cle": 6166,
      "परस्पर": 6167,
      "##itch": 6168,
      "गाय": 6169,
      "##వర్": 6170,
      "proud": 6171,
      "##म्मद": 6172,
      "months": 6173,
      "प्रदर्शित": 6174,
      "#-#-#": 6175,
      "pard": 6176,
      "##तों": 6177,
      "नियंत्र": 6178,
      "समु": 6179,
      "drown": 6180,
      "#-#-#-#-#": 6181,
      "वर्ण": 6182,
      "##फू": 6183,
      "##edient": 6184,
      "grateful": 6185,
      "opened": 6186,
      "प्रतिदान": 6187,
      "lar": 6188,
      "##तेह": 6189,
      "रहम": 6190,
      "चाहा": 6191,
      "raise": 6192,
      "पाकीज़ा": 6193,
      "##రిగి": 6194,
      "blame": 6195,
      "result": 6196,
      "पहाड़": 6197,
      "नजात": 6198,
      "మొ": 6199,
      "##మీ": 6200,
      "##bit": 6201,
      "##उस": 6202,
      "allow": 6203,
      "नियम": 6204,
      "story": 6205,
      "लाएँ": 6206,
      "अमान": 6207,
      "चा": 6208,
      "door": 6209,
      "##cribed": 6210,
      "लड़के": 6211,
      "##ency": 6212,
      "##ौरन": 6213,
      "सवार": 6214,
      "##dy": 6215,
      "##ब्र": 6216,
      "##शाह": 6217,
      "cap": 6218,
      "##कुम": 6219,
      "##जूद": 6220,
      "##शे": 6221,
      "iss": 6222,
      "##बाही": 6223,
      "header": 6224,
      "फरमाया": 6225,
      "delivered": 6226,
      "##pass": 6227,
      "##ators": 6228,
      "सुनने": 6229,
      "कुफ्फार": 6230,
      "loading": 6231,
      "network": 6232,
      "डाउनलोड": 6233,
      "पाने": 6234,
      "मरियम": 6235,
      "भरें": 6236,
      "excell": 6237,
      "##क़ा": 6238,
      "केडीई": 6239,
      "दलील": 6240,
      "##go": 6241,
      "##cial": 6242,
      "approach": 6243,
      "लक्ष्य": 6244,
      "win": 6245,
      "क़त्ल": 6246,
      "configure": 6247,
      "##ceed": 6248,
      "gotta": 6249,
      "यद्य": 6250,
      "##res": 6251,
      "##ेशन": 6252,
      "##unch": 6253,
      "working": 6254,
      "admonition": 6255,
      "यद्यपि": 6256,
      "age": 6257,
      "मक्": 6258,
      "उतारी": 6259,
      "अपराध": 6260,
      "##जर": 6261,
      "loss": 6262,
      "established": 6263,
      "मश": 6264,
      "##పా": 6265,
      "##లీ": 6266,
      "env": 6267,
      "forbid": 6268,
      "##కీ": 6269,
      "earn": 6270,
      "grun": 6271,
      "भाषा": 6272,
      "फ़रिश्तों": 6273,
      ")]": 6274,
      "aught": 6275,
      "आएँ": 6276,
      "##ool": 6277,
      "##pted": 6278,
      "##ार्म": 6279,
      "recogn": 6280,
      "##ressed": 6281,
      "डेस्क": 6282,
      "प्रतीक": 6283,
      "नफ": 6284,
      "##ha": 6285,
      "##itable": 6286,
      "content": 6287,
      "लगते": 6288,
      "debug": 6289,
      "arrogant": 6290,
      "बुत": 6291,
      "राज्य": 6292,
      "##जाम": 6293,
      "##खिल": 6294,
      "पाओगे": 6295,
      "protector": 6296,
      "मारा": 6297,
      "##दीक": 6298,
      "##यक": 6299,
      "hist": 6300,
      "liars": 6301,
      "पत्थ": 6302,
      "fruit": 6303,
      "संरक्षक": 6304,
      "जंग": 6305,
      "అక్కడ": 6306,
      "##ियां": 6307,
      "##मेट": 6308,
      "helper": 6309,
      "evidence": 6310,
      "गर्": 6311,
      "offline": 6312,
      "सवाब": 6313,
      "##भार": 6314,
      "##िकता": 6315,
      "##రీ": 6316,
      "दाखिल": 6317,
      "faithless": 6318,
      "intercess": 6319,
      "तबाही": 6320,
      "##onse": 6321,
      "##र्ज़": 6322,
      "safe": 6323,
      "female": 6324,
      "assuredly": 6325,
      "इबर": 6326,
      "##ss": 6327,
      "##ground": 6328,
      "मोमिनों": 6329,
      "क़ुदरत": 6330,
      "##धर": 6331,
      "##ths": 6332,
      "विधि": 6333,
      "नाफर": 6334,
      "ख्वाहिश": 6335,
      "authentication": 6336,
      "##ेंड": 6337,
      "neg": 6338,
      "maj": 6339,
      "थोड़ा": 6340,
      "आज़": 6341,
      "##ma": 6342,
      "##व्य": 6343,
      "##ume": 6344,
      "सीधी": 6345,
      "डीवी": 6346,
      "मौजिज़े": 6347,
      "ఏద": 6348,
      "##फ़त": 6349,
      "chief": 6350,
      "मिलता": 6351,
      "purp": 6352,
      "##fast": 6353,
      "जिनसे": 6354,
      "दिखाने": 6355,
      "क़सम": 6356,
      "tong": 6357,
      "disgra": 6358,
      "सकें": 6359,
      "president": 6360,
      "झूठे": 6361,
      "spirit": 6362,
      "##ॉट": 6363,
      "uns": 6364,
      "fill": 6365,
      "##asting": 6366,
      "body": 6367,
      "mir": 6368,
      "आधार": 6369,
      "##imum": 6370,
      "condition": 6371,
      "##चालित": 6372,
      "##ॉक": 6373,
      "##alty": 6374,
      "signature": 6375,
      "स्वतः": 6376,
      "टाइ": 6377,
      "सेवा": 6378,
      "sud": 6379,
      "thereafter": 6380,
      "लेख": 6381,
      "मात": 6382,
      "##क्रिय": 6383,
      "inside": 6384,
      "##మే": 6385,
      "thous": 6386,
      "दूसरों": 6387,
      "उठाया": 6388,
      "चम": 6389,
      "haply": 6390,
      "गुज़र": 6391,
      "wrath": 6392,
      "curse": 6393,
      "सम्बन्ध": 6394,
      "चाँ": 6395,
      "चलने": 6396,
      "carry": 6397,
      "##vous": 6398,
      "##ina": 6399,
      "step": 6400,
      "await": 6401,
      "needs": 6402,
      "enemies": 6403,
      "तस्वीर": 6404,
      "dispute": 6405,
      "अकार": 6406,
      "इता": 6407,
      "##ండ్": 6408,
      "style": 6409,
      "सबके": 6410,
      "##క్తి": 6411,
      "calls": 6412,
      "बादशाह": 6413,
      "चौड़ाई": 6414,
      "led": 6415,
      "##ining": 6416,
      "समस्या": 6417,
      "activ": 6418,
      "झगड़": 6419,
      "अलावा": 6420,
      "साबित": 6421,
      "fit": 6422,
      "इजा": 6423,
      "इतनी": 6424,
      "देनेवाला": 6425,
      "जाये": 6426,
      "समुदा": 6427,
      "बनाई": 6428,
      "खींच": 6429,
      "मस्ज": 6430,
      "pious": 6431,
      "##జు": 6432,
      ").\"": 6433,
      "kept": 6434,
      "trying": 6435,
      "आदमियों": 6436,
      "तकलीफ": 6437,
      "thousand": 6438,
      "खड़ा": 6439,
      "तम": 6440,
      "wicked": 6441,
      "##्याय": 6442,
      "निम्": 6443,
      "##ऊँगा": 6444,
      "खिसका": 6445,
      "init": 6446,
      "कुल": 6447,
      "clos": 6448,
      "partic": 6449,
      "##स्था": 6450,
      "victory": 6451,
      "डीवीडी": 6452,
      "pane": 6453,
      "##ిక": 6454,
      "अनि": 6455,
      "music": 6456,
      "property": 6457,
      "अक्सर": 6458,
      "##వలం": 6459,
      "निम्न": 6460,
      "##cing": 6461,
      "बरस": 6462,
      "talking": 6463,
      "गण": 6464,
      "##othe": 6465,
      "तेरा": 6466,
      "happy": 6467,
      "beautiful": 6468,
      "##jo": 6469,
      "कोड": 6470,
      "recited": 6471,
      "डरता": 6472,
      "understanding": 6473,
      "compassionate": 6474,
      "##दय": 6475,
      "कैसी": 6476,
      "quit": 6477,
      "राज": 6478,
      "horiz": 6479,
      "प्रेम": 6480,
      "చూడండి": 6481,
      "తిరిగి": 6482,
      "##గం": 6483,
      "##यास": 6484,
      "dem": 6485,
      "abund": 6486,
      "స్థ": 6487,
      "operation": 6488,
      "11": 6489,
      "शान": 6490,
      "##ड्ड": 6491,
      "पासवर्ड": 6492,
      "गुनाहगार": 6493,
      "gracious": 6494,
      "possible": 6495,
      "चेताव": 6496,
      "నుండి": 6497,
      "split": 6498,
      "इबरत": 6499,
      "categ": 6500,
      "रिप": 6501,
      "##ारों": 6502,
      "किये": 6503,
      "##ahim": 6504,
      "store": 6505,
      "##oken": 6506,
      "उपकरण": 6507,
      "evening": 6508,
      "humili": 6509,
      "कनेक्शन": 6510,
      "डेस्कट": 6511,
      "बज": 6512,
      "##ूक": 6513,
      "प्रो": 6514,
      "orph": 6515,
      "charity": 6516,
      "बेटों": 6517,
      "vert": 6518,
      "##्द": 6519,
      "self": 6520,
      "##क्षी": 6521,
      "seeking": 6522,
      "मिलेगा": 6523,
      "##िज": 6524,
      "##इल": 6525,
      "##une": 6526,
      "बनाओ": 6527,
      "##50": 6528,
      "लागू": 6529,
      "बाँ": 6530,
      "##न्दर": 6531,
      "gro": 6532,
      "झगड़": 6533,
      "##ik": 6534,
      "##క్కు": 6535,
      "లేదా": 6536,
      "నిజ": 6537,
      "ఎలా": 6538,
      "రో": 6539,
      "##oid": 6540,
      "काफिर": 6541,
      "धन्य": 6542,
      "san": 6543,
      "##uff": 6544,
      "##ama": 6545,
      "हत्या": 6546,
      "##ండా": 6547,
      "बाव": 6548,
      "##ustr": 6549,
      "क़ायम": 6550,
      "string": 6551,
      "रोकते": 6552,
      "generations": 6553,
      "थोड़े": 6554,
      "शिर्क": 6555,
      "written": 6556,
      "sacred": 6557,
      "moving": 6558,
      "##बरदार": 6559,
      "happened": 6560,
      "fur": 6561,
      "##anna": 6562,
      "कामया": 6563,
      "assist": 6564,
      "fabric": 6565,
      "30": 6566,
      "hours": 6567,
      "companions": 6568,
      "खेती": 6569,
      "coun": 6570,
      "##्ठ": 6571,
      "completed": 6572,
      "##ding": 6573,
      "हमपर": 6574,
      "जिनका": 6575,
      "whereas": 6576,
      "presence": 6577,
      "beneath": 6578,
      "happen": 6579,
      "domin": 6580,
      "excellent": 6581,
      "मक़": 6582,
      "##uous": 6583,
      "marry": 6584,
      "##brahim": 6585,
      "pleasure": 6586,
      "धन्यवाद": 6587,
      "फा": 6588,
      "ఓహ్": 6589,
      "##वेज": 6590,
      "##ुरु": 6591,
      "चखो": 6592,
      "trial": 6593,
      "alive": 6594,
      "होगें": 6595,
      "imap": 6596,
      "छोटे": 6597,
      "बढ़ा": 6598,
      "आवाज़": 6599,
      "सत्यापन": 6600,
      "संलग्नक": 6601,
      "bal": 6602,
      "mut": 6603,
      "rot": 6604,
      "इंत": 6605,
      "काफ़ी": 6606,
      "idols": 6607,
      "ibrahim": 6608,
      "चखा": 6609,
      "चाहो": 6610,
      "dialog": 6611,
      "required": 6612,
      "सप्ताह": 6613,
      "hot": 6614,
      "नम": 6615,
      "सरी": 6616,
      "##over": 6617,
      "##फ्ट": 6618,
      "repe": 6619,
      "drag": 6620,
      "आना": 6621,
      "##क्षण": 6622,
      "ways": 6623,
      "capt": 6624,
      "below": 6625,
      "जल": 6626,
      "भार": 6627,
      "సి": 6628,
      "deaf": 6629,
      "ide": 6630,
      "सदस्य": 6631,
      "000": 6632,
      "50": 6633,
      "డి": 6634,
      "##ोने": 6635,
      "##orrow": 6636,
      "##स्ल": 6637,
      "##iling": 6638,
      "सूर्य": 6639,
      "व्यस्त": 6640,
      "కేవలం": 6641,
      "इताअत": 6642,
      "mill": 6643,
      "मग़": 6644,
      "##sl": 6645,
      "##टल": 6646,
      "##హా": 6647,
      "पूरे": 6648,
      "benefic": 6649,
      "डेस्कटॉप": 6650,
      "ट्रे": 6651,
      "समान": 6652,
      "##चल": 6653,
      "tried": 6654,
      "proxy": 6655,
      "##बीर": 6656,
      "creatures": 6657,
      "bed": 6658,
      "इम": 6659,
      "##cut": 6660,
      "##59": 6661,
      "ungr": 6662,
      "रखनेवालों": 6663,
      "ड्राइ": 6664,
      "pardon": 6665,
      "##లని": 6666,
      "isn": 6667,
      "sho": 6668,
      "output": 6669,
      "sinners": 6670,
      "झूठा": 6671,
      "begin": 6672,
      "परीक्षा": 6673,
      "pac": 6674,
      "वर्ग": 6675,
      "iso": 6676,
      "नीति": 6677,
      "तकलीफ़": 6678,
      "नज़दीक": 6679,
      "गति": 6680,
      "भड़": 6681,
      "##ल्लम": 6682,
      "वाक": 6683,
      "attack": 6684,
      "ran": 6685,
      "कच": 6686,
      "लिंक": 6687,
      "दस्तावेज": 6688,
      "hit": 6689,
      "##rain": 6690,
      "contents": 6691,
      "##ubs": 6692,
      "idol": 6693,
      "छोड़कर": 6694,
      "##ప్పుడ": 6695,
      "##ध्यम": 6696,
      "voices": 6697,
      "history": 6698,
      "onto": 6699,
      "कुबूल": 6700,
      "बहन": 6701,
      "stray": 6702,
      "##itional": 6703,
      "##స్తుంది": 6704,
      "double": 6705,
      "details": 6706,
      "removed": 6707,
      "journey": 6708,
      "sudden": 6709,
      "एम": 6710,
      "##भाल": 6711,
      "decree": 6712,
      "प्रबंधक": 6713,
      "बकवास": 6714,
      "knoweth": 6715,
      "लेगा": 6716,
      "##aff": 6717,
      "ఉంటాయి": 6718,
      "country": 6719,
      "निरा": 6720,
      "heavy": 6721,
      "न्य": 6722,
      "##శా": 6723,
      "##ल्क": 6724,
      "पत्र": 6725,
      "thereby": 6726,
      "चीज": 6727,
      "playing": 6728,
      "specify": 6729,
      "टाल": 6730,
      "देर": 6731,
      "विवरण": 6732,
      "contains": 6733,
      "लिखें": 6734,
      "speaking": 6735,
      "dav": 6736,
      "gun": 6737,
      "छा": 6738,
      "पाँ": 6739,
      "##roll": 6740,
      "मोहम्मद": 6741,
      "mohamm": 6742,
      "मिली": 6743,
      "पहुँची": 6744,
      "righteousness": 6745,
      "तलाश": 6746,
      "islamic": 6747,
      "समुदाय": 6748,
      "##ౌన్": 6749,
      "const": 6750,
      "रूह": 6751,
      "helped": 6752,
      "items": 6753,
      "इजाज़त": 6754,
      "##वाई": 6755,
      "uni": 6756,
      "##abase": 6757,
      "disput": 6758,
      "भेजी": 6759,
      "company": 6760,
      "pacific": 6761,
      "sam": 6762,
      "##न्ड": 6763,
      "master": 6764,
      "##मेन": 6765,
      "झुक": 6766,
      "intern": 6767,
      "सुधार": 6768,
      "temp": 6769,
      "ungrateful": 6770,
      "##సరం": 6771,
      "young": 6772,
      "रोका": 6773,
      "खुल्लम": 6774,
      "standing": 6775,
      "पत्थर": 6776,
      "mohammed": 6777,
      "_re": 6778,
      "कामों": 6779,
      "entered": 6780,
      "बाग़ों": 6781,
      "busy": 6782,
      "daughters": 6783,
      "mur": 6784,
      "झों": 6785,
      "మూ": 6786,
      "##ches": 6787,
      "मुशरिक": 6788,
      "निष्क्रिय": 6789,
      "बावजूद": 6790,
      "`%": 6791,
      "डूब": 6792,
      "पड़ा": 6793,
      "काबा": 6794,
      "##ribute": 6795,
      "produce": 6796,
      "east": 6797,
      "घो": 6798,
      "वचन": 6799,
      "రెం": 6800,
      "##han": 6801,
      "##फ़ी": 6802,
      "height": 6803,
      "चीज़े": 6804,
      "reflect": 6805,
      "स्त्रियाँ": 6806,
      "हँसी": 6807,
      "24": 6808,
      "mm": 6809,
      "##imin": 6810,
      "throw": 6811,
      "(*": 6812,
      "##ंब": 6813,
      "##60": 6814,
      "जाएँगें": 6815,
      "झुठलाओगे": 6816,
      "former": 6817,
      "उदा": 6818,
      "दीवार": 6819,
      "wishes": 6820,
      "cried": 6821,
      "ग्रह": 6822,
      "అని": 6823,
      "వద్ద": 6824,
      "##ెన్": 6825,
      "##खी": 6826,
      "affair": 6827,
      "minutes": 6828,
      "కొన్ని": 6829,
      "gnu": 6830,
      "portion": 6831,
      "()": 6832,
      "pap": 6833,
      "यकीन": 6834,
      "గా": 6835,
      "guess": 6836,
      "पुलिस": 6837,
      "invoke": 6838,
      "एवं": 6839,
      "icon": 6840,
      "ain": 6841,
      "sick": 6842,
      "पहुंचा": 6843,
      "hello": 6844,
      "ident": 6845,
      "perfect": 6846,
      "परहेज़गारों": 6847,
      "viol": 6848,
      "माना": 6849,
      "##ंतर": 6850,
      "##लाह": 6851,
      "ant": 6852,
      "retribution": 6853,
      "active": 6854,
      "ख़बरदार": 6855,
      "जज़ा": 6856,
      "bey": 6857,
      "ठहराते": 6858,
      "ज़ालिमों": 6859,
      "##rant": 6860,
      "##ality": 6861,
      "##रेत": 6862,
      "box": 6863,
      "##म्पा": 6864,
      "अन्जाम": 6865,
      "op": 6866,
      "##ीदा": 6867,
      "##ih": 6868,
      "##वस": 6869,
      "करूँ": 6870,
      "तौरेत": 6871,
      "beyond": 6872,
      "##जूर": 6873,
      "खुल्ला": 6874,
      "आएगी": 6875,
      "##ज्ज़त": 6876,
      "steadfast": 6877,
      "पल": 6878,
      "##ुस": 6879,
      "rejo": 6880,
      "##क्टर": 6881,
      "develop": 6882,
      "depart": 6883,
      "tomorrow": 6884,
      "setting": 6885,
      "flo": 6886,
      "पुनर्": 6887,
      "automatically": 6888,
      "learn": 6889,
      "wanna": 6890,
      "ऑडियो": 6891,
      "”;": 6892,
      "##ెల్": 6893,
      "##ases": 6894,
      "डालें": 6895,
      "आवाज़": 6896,
      "##reg": 6897,
      "loves": 6898,
      "calling": 6899,
      "पकड़": 6900,
      "air": 6901,
      "अना": 6902,
      "छाप": 6903,
      "పు": 6904,
      "##ole": 6905,
      "##ury": 6906,
      "##लेमान": 6907,
      "dele": 6908,
      "सुख": 6909,
      "सुलेमान": 6910,
      "gathered": 6911,
      "अकेला": 6912,
      "करतूत": 6913,
      "(\"": 6914,
      "##బడ": 6915,
      "##फी": 6916,
      "powerful": 6917,
      "strike": 6918,
      "penalty": 6919,
      "##ग़ैरह": 6920,
      "ट्रैक": 6921,
      "सरीही": 6922,
      "mine": 6923,
      "వీ": 6924,
      "##िस्": 6925,
      "theme": 6926,
      "clay": 6927,
      "overt": 6928,
      "slay": 6929,
      "रुको": 6930,
      "oaths": 6931,
      "टो": 6932,
      "##య్య": 6933,
      "##mal": 6934,
      "##isc": 6935,
      "attend": 6936,
      "स्वचालित": 6937,
      "पत्नी": 6938,
      "अस्थ": 6939,
      "जन्": 6940,
      "##तिहास": 6941,
      "##lier": 6942,
      "thamud": 6943,
      "purpose": 6944,
      "##bb": 6945,
      "निगाह": 6946,
      "libr": 6947,
      "అనుకుంటు": 6948,
      "pict": 6949,
      "पड़ा": 6950,
      "यून": 6951,
      "##देह": 6952,
      "chat": 6953,
      "इनसे": 6954,
      "recip": 6955,
      "समझे": 6956,
      "छिपाते": 6957,
      "व्याप": 6958,
      "फूँ": 6959,
      "फिट": 6960,
      "పి": 6961,
      "సో": 6962,
      "##ंक्शन": 6963,
      "##హి": 6964,
      "##omet": 6965,
      "नाशु": 6966,
      "दुश": 6967,
      "ऊँचा": 6968,
      "##రో": 6969,
      "fort": 6970,
      "gold": 6971,
      "fell": 6972,
      "proper": 6973,
      "currently": 6974,
      "मनुष्यों": 6975,
      "बरसाया": 6976,
      "bag": 6977,
      "eight": 6978,
      "फौरन": 6979,
      "कितना": 6980,
      "##ests": 6981,
      "sinc": 6982,
      "escape": 6983,
      "नाशुक्र": 6984,
      "zoom": 6985,
      "##नत": 6986,
      "छोटा": 6987,
      "breath": 6988,
      "takes": 6989,
      "अज्र": 6990,
      "sincere": 6991,
      "13": 6992,
      "मूल": 6993,
      "##ग्र": 6994,
      "बाक़ी": 6995,
      "constr": 6996,
      "देखे": 6997,
      "अनुप": 6998,
      "response": 6999,
      "dig": 7000,
      "छू": 7001,
      "##ेंद्र": 7002,
      "##म्भ": 7003,
      "##ैब": 7004,
      "##चर": 7005,
      "mock": 7006,
      "##फ़्र": 7007,
      "##val": 7008,
      "निकले": 7009,
      "monothe": 7010,
      "##arks": 7011,
      "package": 7012,
      "रहेगी": 7013,
      "पुष्टि": 7014,
      "started": 7015,
      "अफसोस": 7016,
      "वग़ैरह": 7017,
      "##यात": 7018,
      "इल्": 7019,
      "##aron": 7020,
      "##ताओं": 7021,
      "कमाई": 7022,
      "modify": 7023,
      "एहकाम": 7024,
      "दादाओं": 7025,
      "अनुकम्पा": 7026,
      "करु": 7027,
      "##ियाई": 7028,
      "सम्म": 7029,
      "wherefore": 7030,
      "##న్నారా": 7031,
      "फ्लै": 7032,
      "idolat": 7033,
      "कंप": 7034,
      "##iers": 7035,
      "##aving": 7036,
      "##जरत": 7037,
      "##omon": 7038,
      "सेटिंग": 7039,
      "బాగా": 7040,
      "\")": 7041,
      "ఉండ": 7042,
      "goes": 7043,
      "लेना": 7044,
      "जाननेवाला": 7045,
      "brows": 7046,
      "##రించ": 7047,
      "चीज़ों": 7048,
      "बताया": 7049,
      "trees": 7050,
      "प्रशांत": 7051,
      "beneficent": 7052,
      "vol": 7053,
      "ऑफ़": 7054,
      "##land": 7055,
      "##set": 7056,
      "##ట్లా": 7057,
      "road": 7058,
      "eye": 7059,
      "मोहलत": 7060,
      "चुपके": 7061,
      "कृतज्ञता": 7062,
      "ज़बान": 7063,
      "##రకు": 7064,
      "##view": 7065,
      "##rees": 7066,
      "half": 7067,
      "stars": 7068,
      "camer": 7069,
      "दाहिने": 7070,
      "आज़मा": 7071,
      "disgrace": 7072,
      "##ప్పుడూ": 7073,
      "var": 7074,
      "तद": 7075,
      "दस": 7076,
      "ఎందుకు": 7077,
      "లా": 7078,
      "##ell": 7079,
      "##गारी": 7080,
      "##ेंस": 7081,
      "तोड़": 7082,
      "इन्सा": 7083,
      "ordained": 7084,
      "jinns": 7085,
      "appear": 7086,
      "प्रसन्न": 7087,
      "rebell": 7088,
      "mou": 7089,
      "एख्तेयार": 7090,
      "मसल": 7091,
      "सीन": 7092,
      "नाफ़र": 7093,
      "डालो": 7094,
      "warned": 7095,
      "प्रशंसा": 7096,
      "आह": 7097,
      "##ైనా": 7098,
      "आँखों": 7099,
      "धोखे": 7100,
      "junk": 7101,
      "lu": 7102,
      "##लती": 7103,
      "##ధా": 7104,
      "deg": 7105,
      "बुल": 7106,
      "giving": 7107,
      "beside": 7108,
      "उम्मत": 7109,
      "mal": 7110,
      "फिरते": 7111,
      "गिरफ्त": 7112,
      "सुरक्षा": 7113,
      "ban": 7114,
      "दूँ": 7115,
      "पश्च": 7116,
      "##ables": 7117,
      "महफू": 7118,
      "actions": 7119,
      "missing": 7120,
      "दर्जे": 7121,
      "अरबी": 7122,
      "महफूज़": 7123,
      "शौ": 7124,
      "हरे": 7125,
      "क़ब्ल": 7126,
      "करनी": 7127,
      "मिलने": 7128,
      "##िप्": 7129,
      "torah": 7130,
      "fixed": 7131,
      "आइ": 7132,
      "नूर": 7133,
      "##add": 7134,
      "खोलने": 7135,
      "pleases": 7136,
      "बिलकुल": 7137,
      "',": 7138,
      "rid": 7139,
      "round": 7140,
      "इतिहास": 7141,
      "कही": 7142,
      "कश्त": 7143,
      "खजूर": 7144,
      "##िरा": 7145,
      "male": 7146,
      "lives": 7147,
      "ground": 7148,
      "auto": 7149,
      "transgressors": 7150,
      "विस्तार": 7151,
      "जन्म": 7152,
      "monotheism": 7153,
      "आंक": 7154,
      "wel": 7155,
      "कहे": 7156,
      "background": 7157,
      "टैग": 7158,
      "##where": 7159,
      "drowned": 7160,
      "##ics": 7161,
      "संवाद": 7162,
      "लाइन": 7163,
      "समझो": 7164,
      "परिवार": 7165,
      "पाबन्दी": 7166,
      "##lig": 7167,
      "seal": 7168,
      "कुफ़्र": 7169,
      "बहका": 7170,
      "slaves": 7171,
      "అతని": 7172,
      "hardship": 7173,
      "తో": 7174,
      "పని": 7175,
      "##wr": 7176,
      "##bra": 7177,
      "परो": 7178,
      "##char": 7179,
      "writing": 7180,
      "औज़ार": 7181,
      "हल्": 7182,
      "क़ायम": 7183,
      "##ped": 7184,
      "सेक": 7185,
      "chann": 7186,
      "ourselves": 7187,
      "चलता": 7188,
      "घाटा": 7189,
      "मुशरे": 7190,
      "ख़िला": 7191,
      "##erve": 7192,
      "##edit": 7193,
      "प्रिय": 7194,
      "front": 7195,
      "संबंध": 7196,
      "##दीक़": 7197,
      "belied": 7198,
      "सोचा": 7199,
      "मेहरबानी": 7200,
      "favours": 7201,
      "solomon": 7202,
      "pick": 7203,
      "rul": 7204,
      "कार्ड": 7205,
      "##aly": 7206,
      "##प्": 7207,
      "##बद्ध": 7208,
      "##kend": 7209,
      "disob": 7210,
      "बीवियों": 7211,
      "निर्ण": 7212,
      "decreed": 7213,
      "root": 7214,
      "respons": 7215,
      "सन्देह": 7216,
      "भिन्न": 7217,
      "##ెస్": 7218,
      "threat": 7219,
      "##्हें": 7220,
      "निवे": 7221,
      "गर्द": 7222,
      "योजना": 7223,
      "ప్": 7224,
      "##జ్": 7225,
      "shut": 7226,
      "##క్స్": 7227,
      "books": 7228,
      "पीछा": 7229,
      "मुक़ाबले": 7230,
      "huh": 7231,
      "jac": 7232,
      "belief": 7233,
      "##स्टम": 7234,
      "रुजू": 7235,
      "##द्दत": 7236,
      "vari": 7237,
      "वहीं": 7238,
      "वाह": 7239,
      "वसी": 7240,
      "##ప్ర": 7241,
      "##path": 7242,
      "##रि": 7243,
      "##icult": 7244,
      "मेन": 7245,
      "##uss": 7246,
      "भेजने": 7247,
      "झुठलाते": 7248,
      "महत्व": 7249,
      "विभेद": 7250,
      "बारी": 7251,
      "##कान": 7252,
      "##list": 7253,
      "pract": 7254,
      "pros": 7255,
      "correct": 7256,
      "सर्वज्ञ": 7257,
      "corruption": 7258,
      "difficult": 7259,
      "चेहरे": 7260,
      "aaron": 7261,
      "तह": 7262,
      "##iting": 7263,
      "sup": 7264,
      "saving": 7265,
      "##iff": 7266,
      "divor": 7267,
      "communic": 7268,
      "इतने": 7269,
      "गी": 7270,
      "##ler": 7271,
      "##ूवत": 7272,
      "परवाह": 7273,
      "encom": 7274,
      "##version": 7275,
      "मौज़": 7276,
      "अंतर": 7277,
      "values": 7278,
      "నిర్": 7279,
      "arabic": 7280,
      "संस्थापित": 7281,
      "##_bar_": 7282,
      "##ats": 7283,
      "बनकर": 7284,
      "मज़बूत": 7285,
      "వెళ్ళి": 7286,
      "उलट": 7287,
      "##लंघ": 7288,
      "force": 7289,
      "नेको": 7290,
      "देखकर": 7291,
      "चुने": 7292,
      "diam": 7293,
      "ज्यादती": 7294,
      "misch": 7295,
      "cell": 7296,
      "gt": 7297,
      "gain": 7298,
      "##vin": 7299,
      "##फिक़": 7300,
      "recall": 7301,
      "निकाले": 7302,
      "private": 7303,
      "प्रक्रिया": 7304,
      "इसहा": 7305,
      "मुख़": 7306,
      "मुन्त": 7307,
      "बीमार": 7308,
      "गिनती": 7309,
      "joh": 7310,
      "}'": 7311,
      "क्य": 7312,
      "##lasting": 7313,
      "##्वा": 7314,
      "area": 7315,
      "इनमें": 7316,
      "अंधे": 7317,
      "मुशरेकीन": 7318,
      "##लंघन": 7319,
      "row": 7320,
      "##धित": 7321,
      "शिक्षा": 7322,
      "मीम": 7323,
      "police": 7324,
      "हारून": 7325,
      "large": 7326,
      "पाँव": 7327,
      "pull": 7328,
      "सत्ता": 7329,
      "##for": 7330,
      "tot": 7331,
      "everlasting": 7332,
      "पहुंच": 7333,
      "worldly": 7334,
      "पोर्ट": 7335,
      "समुद्र": 7336,
      "परोक्ष": 7337,
      "mime": 7338,
      "waste": 7339,
      "##डा": 7340,
      "fulfilled": 7341,
      "14": 7342,
      "vain": 7343,
      "चली": 7344,
      "##ंह": 7345,
      "trou": 7346,
      "सकेंगे": 7347,
      "##ibility": 7348,
      "final": 7349,
      "##టానికి": 7350,
      "मिटाना": 7351,
      "pix": 7352,
      "आयी": 7353,
      "चाहती": 7354,
      "बातिल": 7355,
      "bras": 7356,
      "database": 7357,
      "similar": 7358,
      "##్వా": 7359,
      "##oth": 7360,
      "##कोप": 7361,
      "affairs": 7362,
      "grievous": 7363,
      "प्लगिन": 7364,
      "encompass": 7365,
      "'{": 7366,
      "आबाद": 7367,
      "मचा": 7368,
      "weight": 7369,
      "##र्दा": 7370,
      "कृपा": 7371,
      "actor": 7372,
      "అవసరం": 7373,
      "कचरा": 7374,
      "van": 7375,
      "इंटर": 7376,
      "घेर": 7377,
      "रक्षा": 7378,
      "trash": 7379,
      "offsp": 7380,
      "इरादा": 7381,
      "मध्य": 7382,
      "dog": 7383,
      "##लेख": 7384,
      "##किल": 7385,
      "fearing": 7386,
      "keys": 7387,
      "कमबख्त": 7388,
      "rock": 7389,
      "standard": 7390,
      "पढ़ा": 7391,
      "घंटे": 7392,
      "##ज़ाम": 7393,
      "wilt": 7394,
      "shad": 7395,
      "##राने": 7396,
      "claim": 7397,
      "लगाते": 7398,
      "answered": 7399,
      "ships": 7400,
      "jacob": 7401,
      "?’": 7402,
      "##वाना": 7403,
      "##edience": 7404,
      "##oked": 7405,
      "subs": 7406,
      "पूछते": 7407,
      "दूध": 7408,
      "brasero": 7409,
      "bud": 7410,
      "##ालन": 7411,
      "##र्न": 7412,
      "unaw": 7413,
      "इनके": 7414,
      "##वार्य": 7415,
      "fighting": 7416,
      "surre": 7417,
      "अनिवार्य": 7418,
      "चेतावनी": 7419,
      "hang": 7420,
      "##ధ్య": 7421,
      "##vern": 7422,
      "whoso": 7423,
      "देती": 7424,
      "पाए": 7425,
      "update": 7426,
      "offspring": 7427,
      "ta": 7428,
      "##सू": 7429,
      "##vs": 7430,
      "##షి": 7431,
      "##सेट": 7432,
      "##्टी": 7433,
      "##స్థ": 7434,
      "spr": 7435,
      "follows": 7436,
      "regular": 7437,
      "बुलाया": 7438,
      "visible": 7439,
      "regarding": 7440,
      "character": 7441,
      "bott": 7442,
      "jav": 7443,
      "कतरा": 7444,
      "सित": 7445,
      "##uf": 7446,
      "##ోన్": 7447,
      "पाते": 7448,
      "exact": 7449,
      "manage": 7450,
      "दिखायें": 7451,
      "परिव": 7452,
      "accounts": 7453,
      "considered": 7454,
      "west": 7455,
      "कड़ी": 7456,
      "हाय": 7457,
      "##ैम": 7458,
      "##cus": 7459,
      "param": 7460,
      "community": 7461,
      "collect": 7462,
      "##कल": 7463,
      "isa": 7464,
      "spades": 7465,
      "माध्यम": 7466,
      "విష": 7467,
      "मंज़": 7468,
      "गणना": 7469,
      "bones": 7470,
      "green": 7471,
      "भरे": 7472,
      "कर्ता": 7473,
      "sees": 7474,
      "wherever": 7475,
      "फरिश्तों": 7476,
      "सम्मान": 7477,
      "battle": 7478,
      "##सन": 7479,
      "##ny": 7480,
      "मैदान": 7481,
      "##ियाद": 7482,
      "alph": 7483,
      "indian": 7484,
      "##eps": 7485,
      "kinds": 7486,
      "##ప్పటి": 7487,
      "immed": 7488,
      "जानवरों": 7489,
      "died": 7490,
      "रिक्त": 7491,
      "##షన్": 7492,
      "input": 7493,
      "lex": 7494,
      "however": 7495,
      "couldn": 7496,
      "सजदे": 7497,
      "entire": 7498,
      "पिताजी": 7499,
      "प्रसंग": 7500,
      "christians": 7501,
      "चाँद": 7502,
      "''": 7503,
      "जाकर": 7504,
      "asse": 7505,
      "जहाँन": 7506,
      "ऊँट": 7507,
      "cir": 7508,
      "squ": 7509,
      "हल": 7510,
      "conse": 7511,
      "clearly": 7512,
      "memory": 7513,
      "पसंदीदा": 7514,
      "अपराधी": 7515,
      "horizont": 7516,
      "##पाय": 7517,
      "##atives": 7518,
      "##vey": 7519,
      "पर्या": 7520,
      "sever": 7521,
      "మాట్లా": 7522,
      "export": 7523,
      "sacr": 7524,
      "worshipped": 7525,
      "##eg": 7526,
      "##मंड": 7527,
      "chance": 7528,
      "believes": 7529,
      "##िलित": 7530,
      "पीने": 7531,
      "extra": 7532,
      "పొందు": 7533,
      "welcome": 7534,
      "non": 7535,
      "pil": 7536,
      "साह": 7537,
      "##off": 7538,
      "##वित्र": 7539,
      "##face": 7540,
      "turning": 7541,
      "##ట్టి": 7542,
      "needy": 7543,
      "लगाए": 7544,
      "decision": 7545,
      "अगला": 7546,
      "birds": 7547,
      "सम्मिलित": 7548,
      "వంటి": 7549,
      "##పయో": 7550,
      "doth": 7551,
      "amongst": 7552,
      "perse": 7553,
      "highlight": 7554,
      "88": 7555,
      "ease": 7556,
      "fle": 7557,
      "named": 7558,
      "डो": 7559,
      "mac": 7560,
      "##న్ను": 7561,
      "angel": 7562,
      "कॉपी": 7563,
      "उठे": 7564,
      "शीर्षिका": 7565,
      "ब्राउ": 7566,
      "रिपोर्ट": 7567,
      "bottom": 7568,
      "##तक": 7569,
      "##तार": 7570,
      "##side": 7571,
      "##ियॉ": 7572,
      "speed": 7573,
      "##देव": 7574,
      "रुसवा": 7575,
      "##upon": 7576,
      "माइ": 7577,
      "##ंगा": 7578,
      "प्रयास": 7579,
      "super": 7580,
      "दोष": 7581,
      "blaz": 7582,
      "team": 7583,
      "सालेह": 7584,
      "किनारे": 7585,
      "खुशख़बरी": 7586,
      "नियंत्रण": 7587,
      "prosper": 7588,
      "lose": 7589,
      "तर्क": 7590,
      "मख़": 7591,
      "मछ": 7592,
      "संदेह": 7593,
      "समझता": 7594,
      "perce": 7595,
      "##ression": 7596,
      "दुर्": 7597,
      "मिलकर": 7598,
      "उल्लंघन": 7599,
      "यहूदी": 7600,
      "*.": 7601,
      "late": 7602,
      "अल्": 7603,
      "बग़ैर": 7604,
      "##भावी": 7605,
      "पढ़ने": 7606,
      "शादी": 7607,
      "अक": 7608,
      "ज़कात": 7609,
      "##नें": 7610,
      "##ट्ठा": 7611,
      "##पसंद": 7612,
      "##वट": 7613,
      "प्रि": 7614,
      "##वां": 7615,
      "मेह": 7616,
      "बनाना": 7617,
      "hosts": 7618,
      "మె": 7619,
      "##vious": 7620,
      "##ाले": 7621,
      "govern": 7622,
      "डालते": 7623,
      "महसूस": 7624,
      "mailbox": 7625,
      "alex": 7626,
      "एंड": 7627,
      "शरार": 7628,
      "పో": 7629,
      "##pes": 7630,
      "जाय": 7631,
      "marri": 7632,
      "greatest": 7633,
      "causes": 7634,
      "seconds": 7635,
      "curs": 7636,
      "interp": 7637,
      "छुपाएँ": 7638,
      "तीस": 7639,
      "వ్యక్తి": 7640,
      "tempor": 7641,
      "gar": 7642,
      "खरी": 7643,
      "हानि": 7644,
      "##बाल": 7645,
      "देखना": 7646,
      "fault": 7647,
      "##ternal": 7648,
      "पूजते": 7649,
      "भड़कती": 7650,
      "diamonds": 7651,
      "ir": 7652,
      "pag": 7653,
      "ऊँच": 7654,
      "टूट": 7655,
      "##though": 7656,
      "special": 7657,
      "घरवालों": 7658,
      "खत्म": 7659,
      "##der": 7660,
      "##ंडार": 7661,
      "infide": 7662,
      "strive": 7663,
      "foundation": 7664,
      "फेंक": 7665,
      "मस्जिद": 7666,
      "केंद्र": 7667,
      "##िमा": 7668,
      "##mail": 7669,
      "##भूमि": 7670,
      "##ీక": 7671,
      "togg": 7672,
      "लाएँगे": 7673,
      "although": 7674,
      "creator": 7675,
      "काफ़ी": 7676,
      "माँगता": 7677,
      "मिस्र": 7678,
      "voice": 7679,
      "center": 7680,
      "తీసు": 7681,
      "एच": 7682,
      "कक्ष": 7683,
      "##हाल": 7684,
      "##र्मी": 7685,
      "shows": 7686,
      "कठिन": 7687,
      "profile": 7688,
      "పేరు": 7689,
      "hund": 7690,
      "##eter": 7691,
      "गुज़": 7692,
      "बीवी": 7693,
      "बनो": 7694,
      "acqu": 7695,
      "plugins": 7696,
      "hundred": 7697,
      "based": 7698,
      "अन्दा": 7699,
      "##20": 7700,
      "##uted": 7701,
      "prison": 7702,
      "ascribe": 7703,
      "retrie": 7704,
      "entry": 7705,
      "ఏమిటి": 7706,
      "sister": 7707,
      "##icode": 7708,
      "believer": 7709,
      "breasts": 7710,
      "snow": 7711,
      "media": 7712,
      "david": 7713,
      "library": 7714,
      "ढूँ": 7715,
      "धी": 7716,
      "grand": 7717,
      "twain": 7718,
      "प्राप्तकर्ता": 7719,
      "observe": 7720,
      "आउटपुट": 7721,
      "खर्च": 7722,
      "पान": 7723,
      "रूस": 7724,
      "##form": 7725,
      "##क़ात": 7726,
      "पैके": 7727,
      "devot": 7728,
      "ఉంటే": 7729,
      "पुनः": 7730,
      "glorify": 7731,
      "surrender": 7732,
      "//": 7733,
      "शे": 7734,
      "##gener": 7735,
      "##ऊद": 7736,
      "##ल्ड": 7737,
      "प्रोज": 7738,
      "##ाँव": 7739,
      "normal": 7740,
      "दरगु": 7741,
      "झुठलाने": 7742,
      "मरयम": 7743,
      "सच्ची": 7744,
      "मनपसंद": 7745,
      "क़ाबू": 7746,
      "excuse": 7747,
      "mischief": 7748,
      "18": 7749,
      "bac": 7750,
      "न्याय": 7751,
      "फसाद": 7752,
      "हुकुम": 7753,
      "बिछ": 7754,
      "ज़र": 7755,
      "##acy": 7756,
      "बच्चा": 7757,
      "minute": 7758,
      "स्ट्र": 7759,
      "##ूर्ण": 7760,
      "पागल": 7761,
      "##ीकृत": 7762,
      "सरदारों": 7763,
      "प्राण": 7764,
      "अवज्ञाकारी": 7765,
      "वृक्ष": 7766,
      "almost": 7767,
      "नुक़": 7768,
      ";{": 7769,
      "sar": 7770,
      "निजी": 7771,
      "पैमान": 7772,
      "sorcer": 7773,
      "module": 7774,
      "##दर्शिता": 7775,
      "gree": 7776,
      "संदेशों": 7777,
      "purify": 7778,
      "मुहताज": 7779,
      "attachment": 7780,
      "army": 7781,
      "travel": 7782,
      "फ्र": 7783,
      "##గిన": 7784,
      "परेश": 7785,
      "templ": 7786,
      "victor": 7787,
      "भुला": 7788,
      "ज़्यादती": 7789,
      "wage": 7790,
      "खौल": 7791,
      "వు": 7792,
      "##sv": 7793,
      "##ंदा": 7794,
      "##తే": 7795,
      "##దే": 7796,
      "trad": 7797,
      "##ifies": 7798,
      "अक्षर": 7799,
      "despair": 7800,
      "marriage": 7801,
      "डॉ": 7802,
      "##iving": 7803,
      "##द्दी": 7804,
      "मौजि": 7805,
      "##worthy": 7806,
      "नाहक़": 7807,
      "गिरफ्तार": 7808,
      "john": 7809,
      "उड़ा": 7810,
      "रिस": 7811,
      "విం": 7812,
      "करनेवाली": 7813,
      "looks": 7814,
      "palm": 7815,
      "రెండు": 7816,
      "##pathy": 7817,
      "ya": 7818,
      "चश्": 7819,
      "##zy": 7820,
      "##టీ": 7821,
      "करी": 7822,
      "जानों": 7823,
      "arri": 7824,
      "जाएँगी": 7825,
      "##हरण": 7826,
      "match": 7827,
      "##ाबेस": 7828,
      "##ges": 7829,
      "परदा": 7830,
      "##icname": 7831,
      "यात्र": 7832,
      "देखेंगे": 7833,
      "लाइ": 7834,
      "manner": 7835,
      "सिफ़": 7836,
      "खोलकर": 7837,
      "reading": 7838,
      "restore": 7839,
      "dpi": 7840,
      "fet": 7841,
      "ऑफ": 7842,
      "##बूर": 7843,
      "##इयों": 7844,
      "दोहरा": 7845,
      "यूआर": 7846,
      "प्रेषक": 7847,
      "##ya": 7848,
      "##कोड": 7849,
      "earlier": 7850,
      "evild": 7851,
      "पुकारो": 7852,
      "క్రి": 7853,
      "damn": 7854,
      "सिफ़ार": 7855,
      "evildo": 7856,
      "शराब": 7857,
      "सूरत": 7858,
      "नेमत": 7859,
      "##ety": 7860,
      "##key": 7861,
      "map": 7862,
      "scatter": 7863,
      "कैम": 7864,
      "शैली": 7865,
      "successful": 7866,
      "enjoyment": 7867,
      "సమయం": 7868,
      "16": 7869,
      "तेज": 7870,
      "##ంగ్": 7871,
      "recur": 7872,
      "##iction": 7873,
      "##మ్మ": 7874,
      "बहुदेव": 7875,
      "ज़ालिमों": 7876,
      "##conf": 7877,
      "ऑफ़लाइन": 7878,
      "पवित्र": 7879,
      "ज़लील": 7880,
      "##बरा": 7881,
      "##నము": 7882,
      "##केल": 7883,
      "प्रभावी": 7884,
      "stream": 7885,
      "वाज़े": 7886,
      "##वालो": 7887,
      "ago": 7888,
      "दाऊद": 7889,
      "##ख्तियार": 7890,
      "असली": 7891,
      "groups": 7892,
      "प्राथम": 7893,
      "places": 7894,
      "summary": 7895,
      "occurred": 7896,
      "jo": 7897,
      "##ाज": 7898,
      "##याल": 7899,
      "events": 7900,
      "asking": 7901,
      "लड़का": 7902,
      "##genericname": 7903,
      "जला": 7904,
      "पद": 7905,
      "भूमि": 7906,
      "agree": 7907,
      "किताबे": 7908,
      "स्थायी": 7909,
      "mosque": 7910,
      "रुए": 7911,
      "##दूरी": 7912,
      "##\\\\\\\\": 7913,
      "उपा": 7914,
      "##ीय": 7915,
      "##न्नों": 7916,
      "अज़ी": 7917,
      "commands": 7918,
      "oblig": 7919,
      "अनुस्मृति": 7920,
      "17": 7921,
      "25": 7922,
      "##नर": 7923,
      "तोड़": 7924,
      "fran": 7925,
      "मुअ": 7926,
      "रोज़े": 7927,
      "डाली": 7928,
      "##త్రి": 7929,
      "पिछला": 7930,
      "निकाला": 7931,
      "ahead": 7932,
      "తెలియ": 7933,
      "तदबीर": 7934,
      "नाफ़रमानी": 7935,
      "दीजिए": 7936,
      "clip": 7937,
      "अंक": 7938,
      "slave": 7939,
      "##पीआई": 7940,
      "किनारा": 7941,
      "घुमा": 7942,
      "भटका": 7943,
      "शर्म": 7944,
      "ज़ोर": 7945,
      "thread": 7946,
      "जहां": 7947,
      "राज़ी": 7948,
      "ईंट": 7949,
      "विलो": 7950,
      "##ization": 7951,
      "avoid": 7952,
      "वैसा": 7953,
      "आँखें": 7954,
      "maintain": 7955,
      "प्रोजेक्ट": 7956,
      "लड़ाई": 7957,
      "జరి": 7958,
      "##oon": 7959,
      "करूँगा": 7960,
      "दिशा": 7961,
      "##apan": 7962,
      "కార్": 7963,
      "दौड़": 7964,
      "माफी": 7965,
      "जमे": 7966,
      "हथ": 7967,
      "డౌన్": 7968,
      "బి": 7969,
      "సర్": 7970,
      "##ంలో": 7971,
      "जिला": 7972,
      "एक्": 7973,
      "aside": 7974,
      "##न्दु": 7975,
      "submiss": 7976,
      "##स्थिति": 7977,
      "चिल्ला": 7978,
      "widget": 7979,
      "limits": 7980,
      "8859": 7981,
      "##dle": 7982,
      "मुताब": 7983,
      "##ैसले": 7984,
      "बेटियाँ": 7985,
      "clouds": 7986,
      "cvs": 7987,
      "kor": 7988,
      "ms": 7989,
      "mouse": 7990,
      "deep": 7991,
      "निश्चि": 7992,
      "bestow": 7993,
      "crash": 7994,
      "बुतों": 7995,
      "निर्णय": 7996,
      "फोल्डर": 7997,
      "##भूत": 7998,
      "##select": 7999,
      "##imes": 8000,
      "unl": 8001,
      "##ulation": 8002,
      "##ंगें": 8003,
      "కాల్": 8004,
      "cursed": 8005,
      "मारने": 8006,
      "जोड़ने": 8007,
      "switch": 8008,
      "ignorant": 8009,
      "suddenly": 8010,
      "paper": 8011,
      "supreme": 8012,
      "सिफ़ारिश": 8013,
      "इज्ज़त": 8014,
      "##सूद": 8015,
      "पैसे": 8016,
      "lived": 8017,
      "रूए": 8018,
      "appre": 8019,
      "निर्यात": 8020,
      "मरत": 8021,
      "लड़की": 8022,
      "जमाअत": 8023,
      "publish": 8024,
      "श्रेणी": 8025,
      "mist": 8026,
      "ठहरे": 8027,
      "क़िस्म": 8028,
      "stud": 8029,
      "unicode": 8030,
      "जिनपर": 8031,
      "बेच": 8032,
      "रोज़ा": 8033,
      "उठाने": 8034,
      "favors": 8035,
      "##चानक": 8036,
      "initial": 8037,
      "fought": 8038,
      "అప్": 8039,
      "shame": 8040,
      "निगे": 8041,
      "ख़ु": 8042,
      "कारस्ता": 8043,
      "pret": 8044,
      "destru": 8045,
      "वाक़िफकार": 8046,
      "व्यापार": 8047,
      "unaware": 8048,
      "hat": 8049,
      "md": 8050,
      "अचानक": 8051,
      "उगा": 8052,
      "##तें": 8053,
      "injust": 8054,
      "नेट": 8055,
      "मुंह": 8056,
      "फ़ाइलों": 8057,
      "owner": 8058,
      "distress": 8059,
      "cities": 8060,
      "nine": 8061,
      "##ping": 8062,
      "##కం": 8063,
      "index": 8064,
      "##స్ట్": 8065,
      "गुप्त": 8066,
      "अभिव": 8067,
      "channel": 8068,
      "नुक़सान": 8069,
      "फट": 8070,
      "##ances": 8071,
      "allowed": 8072,
      "विवाह": 8073,
      "sinful": 8074,
      "##जीव": 8075,
      "incom": 8076,
      "ज़्यादा": 8077,
      "निगेह": 8078,
      "lying": 8079,
      "चर": 8080,
      "##कारे": 8081,
      "##सि": 8082,
      "##imate": 8083,
      "##ाहित": 8084,
      "कहें": 8085,
      "मुश्": 8086,
      "lock": 8087,
      "क़त्ल": 8088,
      "direction": 8089,
      "गोपन": 8090,
      "तस्बीह": 8091,
      "questioned": 8092,
      "_v": 8093,
      "fut": 8094,
      "gent": 8095,
      "##nam": 8096,
      "wherewith": 8097,
      "stayed": 8098,
      "inhab": 8099,
      "dawn": 8100,
      "rename": 8101,
      "ऊँची": 8102,
      "backend": 8103,
      "pan": 8104,
      "ssl": 8105,
      "zak": 8106,
      "गढ़": 8107,
      "घमंड": 8108,
      "बने": 8109,
      "note": 8110,
      "convey": 8111,
      "leaves": 8112,
      "remained": 8113,
      "scream": 8114,
      "followers": 8115,
      "##ension": 8116,
      "सम्प": 8117,
      "अलार्म": 8118,
      "companion": 8119,
      "भुग": 8120,
      "##gy": 8121,
      "rele": 8122,
      "##ops": 8123,
      "लाम": 8124,
      "नाते": 8125,
      "##हरों": 8126,
      "बिन्दु": 8127,
      "parts": 8128,
      "गुमान": 8129,
      "अमल": 8130,
      "symbol": 8131,
      "!’": 8132,
      "इंड": 8133,
      "रद्दी": 8134,
      "##ounce": 8135,
      "south": 8136,
      "सूरज": 8137,
      "bondmen": 8138,
      "पैकेज": 8139,
      "##गम": 8140,
      "inj": 8141,
      "liar": 8142,
      "offic": 8143,
      "बोला": 8144,
      "कर्मों": 8145,
      "cach": 8146,
      "greet": 8147,
      "luck": 8148,
      "mere": 8149,
      "ताल": 8150,
      "भरी": 8151,
      "शरण": 8152,
      "हड्ड": 8153,
      "##हरी": 8154,
      "mothers": 8155,
      "करेगें": 8156,
      "warnings": 8157,
      "क्रम": 8158,
      "fully": 8159,
      "evidences": 8160,
      "paid": 8161,
      "अपराधियों": 8162,
      "vertical": 8163,
      "उदाहरण": 8164,
      "\";": 8165,
      "lower": 8166,
      "अफ़": 8167,
      "उभार": 8168,
      "##तौर": 8169,
      "##uk": 8170,
      "##ंगे": 8171,
      "##image": 8172,
      "price": 8173,
      "मुल्क": 8174,
      "बनाता": 8175,
      "spent": 8176,
      "helpers": 8177,
      "जैक": 8178,
      "organ": 8179,
      "చేస్తున్నాను": 8180,
      "temporary": 8181,
      "injustice": 8182,
      "relation": 8183,
      "जानने": 8184,
      "ज़कात": 8185,
      "फ़रमाया": 8186,
      "आवश्यक": 8187,
      "inspired": 8188,
      "घे": 8189,
      "संत": 8190,
      "usage": 8191,
      "perman": 8192,
      "हिजरत": 8193,
      "ठहराया": 8194,
      "पृष्ठभूमि": 8195,
      "subjected": 8196,
      "मॉड": 8197,
      "वर्णन": 8198,
      "फ्लैग": 8199,
      "mil": 8200,
      "wra": 8201,
      "उड़ा": 8202,
      "शेष": 8203,
      "सॉ": 8204,
      "##ighty": 8205,
      "##श्चित": 8206,
      "devil": 8207,
      "शैता": 8208,
      "##టిని": 8209,
      "third": 8210,
      "मक़सूद": 8211,
      "idea": 8212,
      "वाज़ेए": 8213,
      "ton": 8214,
      "टॉ": 8215,
      "##टें": 8216,
      "##ingly": 8217,
      "प्रयुक्त": 8218,
      "clubs": 8219,
      "actually": 8220,
      "यूसुफ़": 8221,
      "उलटे": 8222,
      "explain": 8223,
      "absol": 8224,
      "अस्थायी": 8225,
      "फिटकार": 8226,
      "मौज़ूदा": 8227,
      "elect": 8228,
      "length": 8229,
      "##app": 8230,
      "##ాడు": 8231,
      "thunder": 8232,
      "intend": 8233,
      "worst": 8234,
      "##ंगी": 8235,
      "grad": 8236,
      "##retched": 8237,
      "खोजें": 8238,
      "engine": 8239,
      "कॉन्फ़िगर": 8240,
      "नाफरमानी": 8241,
      "communications": 8242,
      "##पायों": 8243,
      "फि": 8244,
      "ज़िक्र": 8245,
      "##iter": 8246,
      "sex": 8247,
      "सबकी": 8248,
      "added": 8249,
      "बैठा": 8250,
      "matters": 8251,
      "committed": 8252,
      "touched": 8253,
      "दर्ज": 8254,
      "encryption": 8255,
      "majest": 8256,
      "पर्याप्त": 8257,
      "32": 8258,
      "एख्तियार": 8259,
      "नव": 8260,
      "हंस": 8261,
      "##टो": 8262,
      "wasn": 8263,
      "##isters": 8264,
      "दिखाए": 8265,
      "निस्बत": 8266,
      "numbers": 8267,
      "वैसे": 8268,
      "मुर्दों": 8269,
      "!”": 8270,
      "mort": 8271,
      "దే": 8272,
      "##ौलत": 8273,
      "##शत": 8274,
      "##वादी": 8275,
      "बदौलत": 8276,
      "##aken": 8277,
      "scroll": 8278,
      "विरोध": 8279,
      "dwelling": 8280,
      "exceed": 8281,
      "छिपी": 8282,
      "##ారంభ": 8283,
      "birthday": 8284,
      "que": 8285,
      "अटक": 8286,
      "##upp": 8287,
      "##itions": 8288,
      "देगी": 8289,
      "india": 8290,
      "leaving": 8291,
      "चलाएँ": 8292,
      "टुकड़े": 8293,
      "original": 8294,
      "further": 8295,
      "trouble": 8296,
      "fif": 8297,
      "il": 8298,
      "##ey": 8299,
      "##ka": 8300,
      "##डिया": 8301,
      "##मीटर": 8302,
      "spring": 8303,
      "additional": 8304,
      "हिस्से": 8305,
      "profit": 8306,
      "मर्दों": 8307,
      "अत्याचारियों": 8308,
      "##भाग्य": 8309,
      "कॉन्फ़िग": 8310,
      "tur": 8311,
      "औजार": 8312,
      "తన": 8313,
      "नियुक्त": 8314,
      "##ातः": 8315,
      "thinking": 8316,
      "honor": 8317,
      "आवश्यकता": 8318,
      "60": 8319,
      "हम्द": 8320,
      "कुशा": 8321,
      "दोनो": 8322,
      "pled": 8323,
      "##ర్థ": 8324,
      "बिज": 8325,
      "##वर्ती": 8326,
      "permissions": 8327,
      "##లం": 8328,
      "chuck": 8329,
      "disk": 8330,
      "perish": 8331,
      "camel": 8332,
      "starting": 8333,
      "idolaters": 8334,
      "పొందుటకు": 8335,
      "एड": 8336,
      "तुल": 8337,
      "लप": 8338,
      "##iate": 8339,
      "##tr": 8340,
      "##cent": 8341,
      "##परी": 8342,
      "##orted": 8343,
      "client": 8344,
      "पुराने": 8345,
      "purs": 8346,
      "=\\\\\\\\": 8347,
      "cy": 8348,
      "fing": 8349,
      "धु": 8350,
      "##itory": 8351,
      "మీకు": 8352,
      "##aces": 8353,
      "##धिकार": 8354,
      "रीति": 8355,
      "खिसकाएँ": 8356,
      "aun": 8357,
      "bright": 8358,
      "प्रविष्टि": 8359,
      "mirac": 8360,
      "रहोगे": 8361,
      "मारो": 8362,
      "player": 8363,
      "గుర్": 8364,
      "thankful": 8365,
      "origin": 8366,
      "evildoers": 8367,
      "hun": 8368,
      "ताबे": 8369,
      "फोटो": 8370,
      "##सिक": 8371,
      "जिन्नों": 8372,
      "##iet": 8373,
      "संग्रह": 8374,
      "डाट": 8375,
      "empathy": 8376,
      "जरूरी": 8377,
      "प्रदर्शक": 8378,
      "बैकअप": 8379,
      "sense": 8380,
      "vall": 8381,
      "ब्रै": 8382,
      "जितना": 8383,
      "साक्षी": 8384,
      "proto": 8385,
      "छोटी": 8386,
      "अग्र": 8387,
      "युक्ति": 8388,
      "almighty": 8389,
      "browser": 8390,
      "destruction": 8391,
      "!'": 8392,
      "gate": 8393,
      "जेह": 8394,
      "लु": 8395,
      "అమ": 8396,
      "##लें": 8397,
      "##हक़": 8398,
      "##क्की": 8399,
      "worry": 8400,
      "अधिस": 8401,
      "क्लिप": 8402,
      "परहेज़गारी": 8403,
      "launch": 8404,
      "199": 8405,
      "descendants": 8406,
      "ఏదో": 8407,
      "न्यून": 8408,
      "बुलन्द": 8409,
      "##పయోగ": 8410,
      "अधिसू": 8411,
      "उद्": 8412,
      "होम": 8413,
      "##enty": 8414,
      "##antly": 8415,
      "आसानी": 8416,
      "##ॉगल": 8417,
      "hop": 8418,
      "फ्रे": 8419,
      "सको": 8420,
      "సహా": 8421,
      "forec": 8422,
      "online": 8423,
      "जितने": 8424,
      "हुकू": 8425,
      "apply": 8426,
      "invest": 8427,
      "headers": 8428,
      "दिखला": 8429,
      "cursor": 8430,
      "टॉगल": 8431,
      "##కింగ్": 8432,
      "##थी": 8433,
      "##11": 8434,
      "##ियर": 8435,
      "बेकार": 8436,
      "बीबी": 8437,
      "servant": 8438,
      "फरमाबरदार": 8439,
      "testify": 8440,
      "दौड़": 8441,
      "##క్కువ": 8442,
      "various": 8443,
      "forecast": 8444,
      "fish": 8445,
      "अँ": 8446,
      "एं": 8447,
      "##्ही": 8448,
      "star": 8449,
      "##कियों": 8450,
      "दिखाते": 8451,
      "##शाही": 8452,
      "मोहताज": 8453,
      "dwellers": 8454,
      "##screen": 8455,
      "installed": 8456,
      "category": 8457,
      "pretty": 8458,
      "gentle": 8459,
      "खड़ा": 8460,
      "चित्र": 8461,
      "दम": 8462,
      "बतौर": 8463,
      "##యన్": 8464,
      "##ठी": 8465,
      "##्यूल": 8466,
      "station": 8467,
      "संभाव": 8468,
      "##akes": 8469,
      "becomes": 8470,
      "comput": 8471,
      "office": 8472,
      "रातों": 8473,
      "प्रत्यक्ष": 8474,
      "successfully": 8475,
      "ज़िम्मेदारी": 8476,
      "పొందండి": 8477,
      "assigned": 8478,
      "अमानत": 8479,
      "वसीयत": 8480,
      "महत्वपूर्ण": 8481,
      "isaac": 8482,
      "मौजिज़ा": 8483,
      "ach": 8484,
      "fly": 8485,
      "फी": 8486,
      "भरा": 8487,
      "रॉ": 8488,
      "सल": 8489,
      "##గొ": 8490,
      "##టం": 8491,
      "wide": 8492,
      "किसने": 8493,
      "base": 8494,
      "ग्रे": 8495,
      "मज़": 8496,
      "क़ी": 8497,
      "##డో": 8498,
      "##శ్": 8499,
      "imag": 8500,
      "ruin": 8501,
      "##write": 8502,
      "c_": 8503,
      "इं": 8504,
      "##ంప": 8505,
      "fears": 8506,
      "बोह": 8507,
      "conduct": 8508,
      "सदस्यता": 8509,
      "gtk": 8510,
      "करीब": 8511,
      "निश्चिन्त": 8512,
      "xml": 8513,
      "##दिन": 8514,
      "पैरा": 8515,
      "प्रतिज्ञा": 8516,
      "डराओ": 8517,
      "चालू": 8518,
      "नौका": 8519,
      "तमन्ना": 8520,
      "inhabit": 8521,
      "ram": 8522,
      "आठ": 8523,
      "##निक": 8524,
      "प्रातः": 8525,
      "##कार्ड": 8526,
      "सुल": 8527,
      "सुंदर": 8528,
      "##शीदा": 8529,
      "मानक": 8530,
      "पहुँचने": 8531,
      "पोशीदा": 8532,
      "तरीके": 8533,
      "##एमएल": 8534,
      "तौरैत": 8535,
      "डाटाबेस": 8536,
      "bill": 8537,
      "డా": 8538,
      "సె": 8539,
      "##कस": 8540,
      "##gl": 8541,
      "sold": 8542,
      "rightly": 8543,
      "blow": 8544,
      "##ड़ाई": 8545,
      "respond": 8546,
      "మొద": 8547,
      "छापें": 8548,
      "sought": 8549,
      "पति": 8550,
      "బయ": 8551,
      "हुज़": 8552,
      "सिस्टम": 8553,
      "##istan": 8554,
      "##ूदी": 8555,
      "दरगुज़र": 8556,
      "du": 8557,
      "nations": 8558,
      "नष्ट": 8559,
      "##vest": 8560,
      "##erous": 8561,
      "प्रतिष्ठ": 8562,
      "layout": 8563,
      "gas": 8564,
      "शां": 8565,
      "##दृ": 8566,
      "therewith": 8567,
      "##rier": 8568,
      "फरमाएगा": 8569,
      "स्क्रिप्ट": 8570,
      "likeness": 8571,
      "hind": 8572,
      "pages": 8573,
      "sigh": 8574,
      "ख्": 8575,
      "चेक": 8576,
      "यहीं": 8577,
      "##ुलाम": 8578,
      "##inct": 8579,
      "भीतर": 8580,
      "colors": 8581,
      "कपटा": 8582,
      "moment": 8583,
      "mim": 8584,
      "दक्ष": 8585,
      "##वारी": 8586,
      "##ically": 8587,
      "प्रॉ": 8588,
      "##iled": 8589,
      "##ordin": 8590,
      "meth": 8591,
      "cool": 8592,
      "చేసిన": 8593,
      "interest": 8594,
      "गिरोहों": 8595,
      "इंतजार": 8596,
      "निगेहबान": 8597,
      "भंडार": 8598,
      "##मों": 8599,
      "haven": 8600,
      "जोड़े": 8601,
      "फिरे": 8602,
      "chose": 8603,
      "##నిషి": 8604,
      "##osa": 8605,
      "##ounter": 8606,
      "रूजू": 8607,
      "राष्ट": 8608,
      "charge": 8609,
      "driver": 8610,
      "preferred": 8611,
      ",)": 8612,
      "pour": 8613,
      "सवाल": 8614,
      "##अर": 8615,
      "##ख़ी": 8616,
      "##ज़ब": 8617,
      "संभव": 8618,
      "छोड़ा": 8619,
      "otherwise": 8620,
      "कमज़": 8621,
      "icons": 8622,
      "template": 8623,
      "fig": 8624,
      "ऑन": 8625,
      "पक्ष": 8626,
      "##ैट": 8627,
      "##gu": 8628,
      "##rop": 8629,
      "refer": 8630,
      "वहां": 8631,
      "##क्से": 8632,
      "पाओ": 8633,
      "boiling": 8634,
      "cometh": 8635,
      "advice": 8636,
      "नेअमतों": 8637,
      "covered": 8638,
      "अंगूर": 8639,
      "rise": 8640,
      "अजी": 8641,
      "रिम": 8642,
      "##शोध": 8643,
      "होस्ट": 8644,
      "tri": 8645,
      "सबब": 8646,
      "##ख़्त": 8647,
      "दावे": 8648,
      "heads": 8649,
      "##book": 8650,
      "leaders": 8651,
      "delay": 8652,
      "permanently": 8653,
      "bas": 8654,
      "बछ": 8655,
      "लड़ाई": 8656,
      "##12": 8657,
      "held": 8658,
      "लोगे": 8659,
      "अप्र": 8660,
      "oneness": 8661,
      "##ively": 8662,
      "wouldn": 8663,
      "हां": 8664,
      "common": 8665,
      "decided": 8666,
      "निराश": 8667,
      "springs": 8668,
      "दक्षि": 8669,
      "##गन": 8670,
      "##ze": 8671,
      "##ालत": 8672,
      "##ल्लत": 8673,
      "##सेरो": 8674,
      "##oses": 8675,
      "निर्मित": 8676,
      "फ़रिश्तों": 8677,
      "दस्त": 8678,
      "सृ": 8679,
      "##गि": 8680,
      "##ृह": 8681,
      "##onent": 8682,
      "hair": 8683,
      "enabled": 8684,
      "##rove": 8685,
      "डिब": 8686,
      "##యుము": 8687,
      "##cript": 8688,
      "swift": 8689,
      "लेखक": 8690,
      "horizontal": 8691,
      "future": 8692,
      "न्यूनतम": 8693,
      "cup": 8694,
      "ఆఫ్": 8695,
      "##सत": 8696,
      "##ju": 8697,
      "staff": 8698,
      "sake": 8699,
      "संसा": 8700,
      "##ियल": 8701,
      "बदकार": 8702,
      "##श्चर्य": 8703,
      "##ख़िल": 8704,
      "दाख़िल": 8705,
      "##ृत्ति": 8706,
      "grunts": 8707,
      "रिमोट": 8708,
      "aim": 8709,
      "पॉप": 8710,
      "ब्रे": 8711,
      "वग": 8712,
      "##cs": 8713,
      "##एब": 8714,
      "##वियाँ": 8715,
      "##lly": 8716,
      "##usion": 8717,
      "##asted": 8718,
      "बादशाही": 8719,
      "राजा": 8720,
      "married": 8721,
      "humb": 8722,
      "tongue": 8723,
      "orphans": 8724,
      "परिवर्": 8725,
      "consequ": 8726,
      "बोहतान": 8727,
      "वगैर": 8728,
      "py": 8729,
      "सकी": 8730,
      "రం": 8731,
      "##शित": 8732,
      "ash": 8733,
      "##ित्व": 8734,
      "##ulate": 8735,
      "warrant": 8736,
      "बरबाद": 8737,
      "सहेजने": 8738,
      "विश्ले": 8739,
      "mentioned": 8740,
      "मुश्किल": 8741,
      "इतरा": 8742,
      "यार": 8743,
      "यानि": 8744,
      "సమా": 8745,
      "##ष्य": 8746,
      "##@}": 8747,
      "जाह": 8748,
      "sender": 8749,
      "बेख़": 8750,
      "माफ़": 8751,
      "लगाने": 8752,
      "अन्यथा": 8753,
      "अन्तिम": 8754,
      "alexander": 8755,
      "शरारत": 8756,
      "++": 8757,
      "##नेट": 8758,
      "##aning": 8759,
      "##itation": 8760,
      "resc": 8761,
      "बादल": 8762,
      "##ज्ञाप": 8763,
      "स्तम्भ": 8764,
      "##िश्ता": 8765,
      "मज़दूरी": 8766,
      "school": 8767,
      "ancients": 8768,
      "प्रॉक्सी": 8769,
      "rom": 8770,
      "ride": 8771,
      "इष्ट": 8772,
      "चर्": 8773,
      "सैन": 8774,
      "##सिब": 8775,
      "##my": 8776,
      "##mn": 8777,
      "##hen": 8778,
      "##_m": 8779,
      "##this": 8780,
      "worthy": 8781,
      "north": 8782,
      "किताबों": 8783,
      "##भाषित": 8784,
      "##pected": 8785,
      "encod": 8786,
      "terror": 8787,
      "virtuous": 8788,
      "##ితంగా": 8789,
      "camera": 8790,
      "पश्चिम": 8791,
      "bord": 8792,
      "##omb": 8793,
      "##केट": 8794,
      "##icate": 8795,
      "विज": 8796,
      "रखनेवाला": 8797,
      "flesh": 8798,
      "testim": 8799,
      "existing": 8800,
      "encounter": 8801,
      "రోజు": 8802,
      "method": 8803,
      "%%": 8804,
      "आफ": 8805,
      "ऑप": 8806,
      "चिक": 8807,
      "మనిషి": 8808,
      "##zz": 8809,
      "मुक्त": 8810,
      "पहला": 8811,
      "alike": 8812,
      "bliss": 8813,
      "क़समें": 8814,
      "खुशी": 8815,
      "आगाह": 8816,
      "##सरत": 8817,
      "resurrect": 8818,
      "calam": 8819,
      "करतूतों": 8820,
      "कश्ती": 8821,
      "mb": 8822,
      "vill": 8823,
      "कम्प": 8824,
      "तक़": 8825,
      "न्यू": 8826,
      "जिबरी": 8827,
      "trium": 8828,
      "स्लाइ": 8829,
      "##ंदगी": 8830,
      "सूझ": 8831,
      "##विष्य": 8832,
      "attribute": 8833,
      "ज़िम्मे": 8834,
      "##ृत्त": 8835,
      "जहन्नुमी": 8836,
      "swall": 8837,
      "मज़े": 8838,
      "heedless": 8839,
      "piety": 8840,
      "ड्राइव": 8841,
      "आंकड़ा": 8842,
      "विलोपित": 8843,
      "जिबरील": 8844,
      "triumph": 8845,
      "घटा": 8846,
      "हकी": 8847,
      "##ैद": 8848,
      "##थे": 8849,
      "forbe": 8850,
      "मुद्र": 8851,
      "मुस्ल": 8852,
      "stones": 8853,
      "##रेब": 8854,
      "रखनेवाले": 8855,
      "alb": 8856,
      "opening": 8857,
      "लौटना": 8858,
      "వాటిని": 8859,
      "चैनल": 8860,
      "मछली": 8861,
      "हुकूमत": 8862,
      "आत्": 8863,
      "नो": 8864,
      "यती": 8865,
      "फ़साद": 8866,
      "టా": 8867,
      "##saf": 8868,
      "##थन": 8869,
      "##ese": 8870,
      "ప్రారంభ": 8871,
      "defe": 8872,
      "dominion": 8873,
      "nigh": 8874,
      "भविष्य": 8875,
      "##सों": 8876,
      "##బు": 8877,
      "##्रि": 8878,
      "shu": 8879,
      "मुर्दा": 8880,
      "comfort": 8881,
      "mapi": 8882,
      "scan": 8883,
      "scale": 8884,
      "query": 8885,
      "व्यक्त": 8886,
      "relatives": 8887,
      "terms": 8888,
      "##from": 8889,
      "radio": 8890,
      "cms": 8891,
      "दंड": 8892,
      "धम": 8893,
      "पडे": 8894,
      "##ww": 8895,
      "##iders": 8896,
      "प्रदर्शन": 8897,
      "frame": 8898,
      "anyway": 8899,
      "झुका": 8900,
      "बचाने": 8901,
      "वरना": 8902,
      "daughter": 8903,
      "shoot": 8904,
      "degrees": 8905,
      "vouch": 8906,
      "आकर": 8907,
      "नज़र": 8908,
      "##verted": 8909,
      "दिये": 8910,
      "प्रकोप": 8911,
      "##opy": 8912,
      "संग": 8913,
      "स्म": 8914,
      "##ourse": 8915,
      "cost": 8916,
      "design": 8917,
      "महिमा": 8918,
      "##ंत्रण": 8919,
      "आँक": 8920,
      "maximum": 8921,
      "मुस्लिम": 8922,
      "पक्का": 8923,
      "सै": 8924,
      "सफ़": 8925,
      "uncle": 8926,
      "##लीस": 8927,
      "क्ला": 8928,
      "coop": 8929,
      "सुनि": 8930,
      "लगाया": 8931,
      "##ైన్": 8932,
      "कमज़": 8933,
      "##ival": 8934,
      "ठहराए": 8935,
      "पत्नियों": 8936,
      "कानों": 8937,
      "bounties": 8938,
      "##जनक": 8939,
      "arguments": 8940,
      "స్థా": 8941,
      "भुगतान": 8942,
      "కను": 8943,
      "##oned": 8944,
      "weather": 8945,
      "##र्श": 8946,
      "##राबी": 8947,
      "righteously": 8948,
      "लौटाए": 8949,
      "picture": 8950,
      "inhabitants": 8951,
      "wander": 8952,
      "आश्चर्य": 8953,
      "दूरी": 8954,
      "फ़ाय": 8955,
      "నన్ను": 8956,
      "##कु": 8957,
      "##कम": 8958,
      "##orter": 8959,
      "किस्": 8960,
      "##िरेक्ट": 8961,
      "alms": 8962,
      "सरदार": 8963,
      "दावा": 8964,
      "बदलने": 8965,
      "चिड़ी": 8966,
      "##స్తున్నాను": 8967,
      "##ద్ధ": 8968,
      "शरीर": 8969,
      "కొత్త": 8970,
      "मुहलत": 8971,
      "स्वागत": 8972,
      "अकेले": 8973,
      "जेहाद": 8974,
      "\"?": 8975,
      "sisters": 8976,
      "wont": 8977,
      "अफ़": 8978,
      "కమ్": 8979,
      "##ैरात": 8980,
      "##इट": 8981,
      "##ley": 8982,
      "समाहित": 8983,
      "upright": 8984,
      "देखी": 8985,
      "ख़ाक": 8986,
      "blessing": 8987,
      "important": 8988,
      "calc": 8989,
      "delight": 8990,
      "तसदीक़": 8991,
      "##बोर्ड": 8992,
      "sides": 8993,
      "चोरी": 8994,
      "माह": 8995,
      "क़रा": 8996,
      "##oring": 8997,
      "comment": 8998,
      "हरकत": 8999,
      "sets": 9000,
      "##जील": 9001,
      "devils": 9002,
      "##ांक": 9003,
      "लौटकर": 9004,
      "ऑंखों": 9005,
      "##्ठे": 9006,
      "कॉन्फ़िगरेशन": 9007,
      "बिजली": 9008,
      "धूप": 9009,
      "कीजिए": 9010,
      "##uring": 9011,
      "##ilt": 9012,
      "suc": 9013,
      "##न्दों": 9014,
      "broken": 9015,
      "##ंदु": 9016,
      "attain": 9017,
      "फरमाई": 9018,
      "translators": 9019,
      "व्यवहार": 9020,
      "सीनों": 9021,
      "_i": 9022,
      "rate": 9023,
      "ward": 9024,
      "अस्": 9025,
      "छाया": 9026,
      "माय": 9027,
      "वबाल": 9028,
      "దయ": 9029,
      "##यता": 9030,
      "##ైన": 9031,
      "##anced": 9032,
      "##्रमा": 9033,
      "shout": 9034,
      "##मेंट": 9035,
      "alif": 9036,
      "twice": 9037,
      "personal": 9038,
      "careful": 9039,
      "crazy": 9040,
      "symbols": 9041,
      "ఎవర": 9042,
      "neglect": 9043,
      "मुशरिकों": 9044,
      "मख़लू": 9045,
      "कुशादा": 9046,
      "dread": 9047,
      "ring": 9048,
      "wal": 9049,
      "नक्": 9050,
      "नगर": 9051,
      "##బడి": 9052,
      "##स्टर": 9053,
      "वाजे": 9054,
      "चीज़े": 9055,
      "obedient": 9056,
      "##వాత": 9057,
      "माबूदों": 9058,
      "extract": 9059,
      "calf": 9060,
      "##हासन": 9061,
      "ऑंखें": 9062,
      "bookmarks": 9063,
      "succeed": 9064,
      "sens": 9065,
      "क्व": 9066,
      "winds": 9067,
      "प्रश्": 9068,
      "##टेड": 9069,
      "prayed": 9070,
      "detect": 9071,
      "firmly": 9072,
      "animals": 9073,
      "इल्ज़ाम": 9074,
      "##िप्प": 9075,
      "मुअय्य": 9076,
      "गैर": 9077,
      "शर": 9078,
      "##सिया": 9079,
      "##బా": 9080,
      "##జీ": 9081,
      "किस्म": 9082,
      "##steps": 9083,
      "##itive": 9084,
      "लाज़": 9085,
      "goodly": 9086,
      "whereof": 9087,
      "recipients": 9088,
      "government": 9089,
      "चर्चा": 9090,
      "दफा": 9091,
      "కీ": 9092,
      "బర్": 9093,
      "##जान": 9094,
      "##డీ": 9095,
      "##ణం": 9096,
      "देव": 9097,
      "seize": 9098,
      "##abeth": 9099,
      "##ips": 9100,
      "##uded": 9101,
      "भेजते": 9102,
      "##చేసి": 9103,
      "साझीदार": 9104,
      "lesson": 9105,
      "तुलना": 9106,
      "चोट": 9107,
      "##pg": 9108,
      "##ename": 9109,
      "instr": 9110,
      "sell": 9111,
      "##eters": 9112,
      "कामना": 9113,
      "equals": 9114,
      "पिछली": 9115,
      "sweet": 9116,
      "बरसात": 9117,
      "affliction": 9118,
      "bookmark": 9119,
      "कमज़ोर": 9120,
      "born": 9121,
      "mix": 9122,
      "migr": 9123,
      "टिप्प": 9124,
      "ఉన్న": 9125,
      "##ेक्षा": 9126,
      "##ాను": 9127,
      "##atch": 9128,
      "##lebr": 9129,
      "whats": 9130,
      "prompt": 9131,
      "सोने": 9132,
      "kindness": 9133,
      "दिखाना": 9134,
      "building": 9135,
      "females": 9136,
      "सिखाया": 9137,
      "envir": 9138,
      "ब्रैसेरो": 9139,
      "ax": 9140,
      "jim": 9141,
      "nar": 9142,
      "कार्": 9143,
      "##uce": 9144,
      "##igg": 9145,
      "साथियों": 9146,
      "resol": 9147,
      "cook": 9148,
      "##izabeth": 9149,
      "##్యూ": 9150,
      "प्ले": 9151,
      "displayed": 9152,
      "simon": 9153,
      "elizabeth": 9154,
      "celebr": 9155,
      "ayat": 9156,
      "intercession": 9157,
      "నిజంగా": 9158,
      "मग़फ": 9159,
      "infidels": 9160,
      "सुनिश्चित": 9161,
      "bind": 9162,
      "ell": 9163,
      "www": 9164,
      "##ंता": 9165,
      "##fathers": 9166,
      "progress": 9167,
      "indec": 9168,
      "##oser": 9169,
      "##ogle": 9170,
      "##world": 9171,
      "अनुकूल": 9172,
      "assistant": 9173,
      "अजीब": 9174,
      ".,": 9175,
      "fat": 9176,
      "జీ": 9177,
      "ద్వా": 9178,
      "##oad": 9179,
      "inn": 9180,
      "##स्क्र": 9181,
      "उन्होने": 9182,
      "creates": 9183,
      "generic": 9184,
      "2007": 9185,
      "mountain": 9186,
      "grief": 9187,
      "multiple": 9188,
      "##िरेक्ट्री": 9189,
      "ద్వారా": 9190,
      "तख्त": 9191,
      "रस्": 9192,
      "##uation": 9193,
      "##ब्त": 9194,
      "beings": 9195,
      "punished": 9196,
      "कैश": 9197,
      "छोड़ें": 9198,
      "##फारिश": 9199,
      "##ష్టం": 9200,
      "विभिन्न": 9201,
      "rebellious": 9202,
      "perceive": 9203,
      "toggle": 9204,
      "वगैरह": 9205,
      "आत्मा": 9206,
      "vouchsaf": 9207,
      "आज्ञाप": 9208,
      "उह": 9209,
      "ఉండా": 9210,
      "##aling": 9211,
      "##नीमत": 9212,
      "लेबल": 9213,
      "सिफारिश": 9214,
      "इन्हें": 9215,
      "##त्ते": 9216,
      "telling": 9217,
      "वैसी": 9218,
      "laid": 9219,
      "तंगी": 9220,
      "मजबूर": 9221,
      "forefathers": 9222,
      "हथियार": 9223,
      "testimony": 9224,
      "आज्ञापालन": 9225,
      "_j": 9226,
      "es": 9227,
      "wed": 9228,
      "परदे": 9229,
      "बेटी": 9230,
      "##शनूदी": 9231,
      "सरकार": 9232,
      "बताता": 9233,
      "crimin": 9234,
      "మాకు": 9235,
      "मुनासिब": 9236,
      "patiently": 9237,
      "##दरते": 9238,
      "footsteps": 9239,
      "awaits": 9240,
      "कामयाबी": 9241,
      "interpret": 9242,
      "मरतबा": 9243,
      "environ": 9244,
      "चिप": 9245,
      "डै": 9246,
      "##bon": 9247,
      "whis": 9248,
      "##माने": 9249,
      "बदकारी": 9250,
      "afterward": 9251,
      "झूठी": 9252,
      "##ద్దు": 9253,
      "वास्तविक": 9254,
      "lessons": 9255,
      "इन्साफ़": 9256,
      "प्राथमिकता": 9257,
      "absolute": 9258,
      "क़राबत": 9259,
      "దయచేసి": 9260,
      "whatsthis": 9261,
      "fon": 9262,
      "फु": 9263,
      "क़ब्र": 9264,
      "##card": 9265,
      "##शनी": 9266,
      "##‌ను": 9267,
      "काग": 9268,
      "seed": 9269,
      "बाएँ": 9270,
      "गिरा": 9271,
      "महल": 9272,
      "##look": 9273,
      "बाग़ों": 9274,
      "limit": 9275,
      "उम्र": 9276,
      "computer": 9277,
      "pairs": 9278,
      "फॉ": 9279,
      "##रब": 9280,
      "##एन": 9281,
      "पाएँगे": 9282,
      "sovere": 9283,
      "filled": 9284,
      "altern": 9285,
      "##ाबू": 9286,
      "##भीर": 9287,
      "##ार्क": 9288,
      "whereon": 9289,
      "बरहक़": 9290,
      "पैग़ाम": 9291,
      "अगली": 9292,
      "बढ़कर": 9293,
      "increased": 9294,
      "lady": 9295,
      "वाजेए": 9296,
      "sovereign": 9297,
      "aid": 9298,
      "ibl": 9299,
      "##िष्ट": 9300,
      "##ken": 9301,
      "deities": 9302,
      "thereupon": 9303,
      "checking": 9304,
      "बुलाते": 9305,
      "treas": 9306,
      "कदाचित": 9307,
      "जाँचें": 9308,
      "characters": 9309,
      "सिंहासन": 9310,
      "यूआरएल": 9311,
      "अधिसूचना": 9312,
      "criminals": 9313,
      "##ाफ": 9314,
      "##राव": 9315,
      "##olog": 9316,
      "##rill": 9317,
      "##देश्य": 9318,
      "क़ाबू": 9319,
      "prec": 9320,
      "बारिश": 9321,
      "##वेयर": 9322,
      "हक़ी": 9323,
      "अलि": 9324,
      "##----": 9325,
      "सारांश": 9326,
      "##బ్బు": 9327,
      "clipboard": 9328,
      "hate": 9329,
      "उड़": 9330,
      "जुदा": 9331,
      "##भर": 9332,
      "##सील": 9333,
      "##ाइयों": 9334,
      "desert": 9335,
      "लगो": 9336,
      "reload": 9337,
      "burt": 9338,
      "printer": 9339,
      "settled": 9340,
      "scheme": 9341,
      "exactly": 9342,
      "lines": 9343,
      "rans": 9344,
      "गंत": 9345,
      "##िकी": 9346,
      "##झा": 9347,
      "##ican": 9348,
      "notification": 9349,
      "exper": 9350,
      "##elp": 9351,
      "showed": 9352,
      "invent": 9353,
      "popup": 9354,
      "ग्रस्त": 9355,
      "टुकड़े": 9356,
      "cards": 9357,
      "bin": 9358,
      "भोजन": 9359,
      "##ross": 9360,
      "shot": 9361,
      "प्रोटो": 9362,
      "एकत्र": 9363,
      "withd": 9364,
      "unex": 9365,
      "##साफ़": 9366,
      "therefrom": 9367,
      "##िलिप": 9368,
      "बहा": 9369,
      "##ట్లు": 9370,
      "creating": 9371,
      "decide": 9372,
      "लिखी": 9373,
      "స్నే": 9374,
      "prevent": 9375,
      "सख्ती": 9376,
      "simple": 9377,
      "##స్తాయి": 9378,
      "##गुज़ार": 9379,
      "तलाक़": 9380,
      "girls": 9381,
      "fonts": 9382,
      "iblis": 9383,
      "##యత్": 9384,
      "##ंकि": 9385,
      "तोह": 9386,
      "##सास": 9387,
      "necess": 9388,
      "worse": 9389,
      "##aged": 9390,
      "struck": 9391,
      "थोड़ी": 9392,
      "ముందు": 9393,
      "corrupt": 9394,
      "शैतानों": 9395,
      "आएँगे": 9396,
      "उचित": 9397,
      "कट": 9398,
      "घु": 9399,
      "डिरेक्ट्री": 9400,
      "##ering": 9401,
      "beat": 9402,
      "अप्रिय": 9403,
      "shait": 9404,
      "##काकुल": 9405,
      "याक": 9406,
      "##pelled": 9407,
      "gets": 9408,
      "सरल": 9409,
      "##ugg": 9410,
      "supposed": 9411,
      "refused": 9412,
      "125": 9413,
      "जांचें": 9414,
      "submitted": 9415,
      "afflict": 9416,
      "assemb": 9417,
      "gates": 9418,
      "दाना": 9419,
      "वार्": 9420,
      "కూ": 9421,
      "ఖచ్చ": 9422,
      "##वर्क": 9423,
      "##इयाँ": 9424,
      "कराया": 9425,
      "##्रप": 9426,
      "google": 9427,
      "moosa": 9428,
      "मौसम": 9429,
      "गोली": 9430,
      "terminal": 9431,
      "##लैंड": 9432,
      "buddy": 9433,
      "విండో": 9434,
      "_de": 9435,
      "जुल": 9436,
      "डरे": 9437,
      "शॉ": 9438,
      "itself": 9439,
      "याक़": 9440,
      "##ifice": 9441,
      "exh": 9442,
      "partner": 9443,
      "repos": 9444,
      "##ांस": 9445,
      "दोस्तों": 9446,
      "लड़के": 9447,
      "प्रसन्नता": 9448,
      "अटकल": 9449,
      "खबर": 9450,
      "तल": 9451,
      "पियो": 9452,
      "लम्": 9453,
      "##करी": 9454,
      "##lin": 9455,
      "##वन": 9456,
      "##ాం": 9457,
      "##राद": 9458,
      "proceed": 9459,
      "##దిగా": 9460,
      "छोड़ा": 9461,
      "##त्याशित": 9462,
      "finished": 9463,
      "उल्लेख": 9464,
      "##charselect": 9465,
      "unexpected": 9466,
      "भाइयों": 9467,
      "##्ले": 9468,
      "##ెక్": 9469,
      "beware": 9470,
      "sha": 9471,
      "जिन्ना": 9472,
      "stuff": 9473,
      "excl": 9474,
      "माउस": 9475,
      "निकलने": 9476,
      "విచ": 9477,
      "affect": 9478,
      "##चीत": 9479,
      "driven": 9480,
      "मेन्यू": 9481,
      "valley": 9482,
      "जिन्नात": 9483,
      "mart": 9484,
      "इख्तेयार": 9485,
      "टू": 9486,
      "सदा": 9487,
      "ग़ैब": 9488,
      "##ीकरण": 9489,
      "##rence": 9490,
      "##धिक": 9491,
      "तुम्हीं": 9492,
      "early": 9493,
      "हाए": 9494,
      "मादा": 9495,
      "रुख़": 9496,
      "associated": 9497,
      "इसराइल": 9498,
      "middle": 9499,
      "तारीख़": 9500,
      "దాని": 9501,
      "अर्थात": 9502,
      "universe": 9503,
      "floor": 9504,
      "##బడింది": 9505,
      "गंतव्य": 9506,
      "क़ौ": 9507,
      "##gin": 9508,
      "##icks": 9509,
      "anger": 9510,
      "serious": 9511,
      "acts": 9512,
      "fulfil": 9513,
      "धोखा": 9514,
      "शोकाकुल": 9515,
      "groans": 9516,
      "md5": 9517,
      "डाय": 9518,
      "బ్ర": 9519,
      "##तियाँ": 9520,
      "##ख़ते": 9521,
      "heir": 9522,
      "##काई": 9523,
      "##etime": 9524,
      "disabled": 9525,
      "बातचीत": 9526,
      "अगलों": 9527,
      "बुलाए": 9528,
      "nearer": 9529,
      "household": 9530,
      "तकलीफ़": 9531,
      "जुड़": 9532,
      "मृत": 9533,
      "लाना": 9534,
      "##चक": 9535,
      "expend": 9536,
      "##ूली": 9537,
      "##usted": 9538,
      "क्योंकर": 9539,
      "prescribed": 9540,
      "informed": 9541,
      "demand": 9542,
      "pagans": 9543,
      "achie": 9544,
      "ఎప్పుడూ": 9545,
      "##टके": 9546,
      "##aries": 9547,
      "विजे": 9548,
      "yellow": 9549,
      "स्थिर": 9550,
      "आख़िर": 9551,
      "honourable": 9552,
      "पहाड़ों": 9553,
      "अनाथ": 9554,
      "ख़िलाफ": 9555,
      "निवेदन": 9556,
      "प्रतिष्ठित": 9557,
      "kai": 9558,
      "sad": 9559,
      "नफ़": 9560,
      "पॉ": 9561,
      "వై": 9562,
      "##चि": 9563,
      "##वरूप": 9564,
      "##empt": 9565,
      "क़बूल": 9566,
      "अवसर": 9567,
      "##acity": 9568,
      "flight": 9569,
      "बैठो": 9570,
      "chiefs": 9571,
      "यात्रा": 9572,
      "cache": 9573,
      "tonight": 9574,
      "कदम": 9575,
      "ताब": 9576,
      "नह": 9577,
      "##hr": 9578,
      "##विक": 9579,
      "##జి": 9580,
      "threw": 9581,
      "##rec": 9582,
      "##icy": 9583,
      "##unit": 9584,
      "##न्दे": 9585,
      "boys": 9586,
      "##म्ब": 9587,
      "quality": 9588,
      "बाहरी": 9589,
      "humble": 9590,
      "protection": 9591,
      "benefits": 9592,
      "login": 9593,
      "enjoined": 9594,
      "अकारत": 9595,
      "ransom": 9596,
      "_add": 9597,
      "bank": 9598,
      "yah": 9599,
      "सिक": 9600,
      "हज": 9601,
      "##िना": 9602,
      "##ext": 9603,
      "##फ्": 9604,
      "##జా": 9605,
      "##శం": 9606,
      "convers": 9607,
      "goodness": 9608,
      "tech": 9609,
      "निर्माण": 9610,
      "आग्रह": 9611,
      "defend": 9612,
      "##ించడానికి": 9613,
      "आवाज": 9614,
      "चन्द्रमा": 9615,
      "ignore": 9616,
      "अपमानित": 9617,
      "अफ़सोस": 9618,
      "hearer": 9619,
      "चिंता": 9620,
      "visit": 9621,
      "स्वामी": 9622,
      "befalls": 9623,
      "bounds": 9624,
      "ఎవరు": 9625,
      "क्लिपबोर्ड": 9626,
      "##యత్ని": 9627,
      "japan": 9628,
      "गहरा": 9629,
      "గో": 9630,
      "దీ": 9631,
      "##యవా": 9632,
      "##imun": 9633,
      "storm": 9634,
      "दिखाओ": 9635,
      "हिला": 9636,
      "bull": 9637,
      "dwellings": 9638,
      "साझा": 9639,
      "ग्रहण": 9640,
      "pilgr": 9641,
      "బ్": 9642,
      "##దర్": 9643,
      "##iser": 9644,
      "render": 9645,
      "stone": 9646,
      "saf": 9647,
      "##cket": 9648,
      "##ाँक": 9649,
      "इनपुट": 9650,
      "मानव": 9651,
      "మాత్ర": 9652,
      "पढ़ा": 9653,
      "mission": 9654,
      "शुक्रिया": 9655,
      "जन्मदिन": 9656,
      "flee": 9657,
      "hung": 9658,
      "इंज": 9659,
      "खराब": 9660,
      "गं": 9661,
      "​​": 9662,
      "##wa": 9663,
      "##ba": 9664,
      "##ఒక": 9665,
      "##isions": 9666,
      "##हीन": 9667,
      "habit": 9668,
      "पर्": 9669,
      "##स्कार": 9670,
      "##न्ज": 9671,
      "street": 9672,
      "वादे": 9673,
      "fool": 9674,
      "##versity": 9675,
      "emigr": 9676,
      "##भाषा": 9677,
      "असत्य": 9678,
      "##erman": 9679,
      "across": 9680,
      "associates": 9681,
      "नरक": 9682,
      "kids": 9683,
      "separate": 9684,
      "नफरत": 9685,
      "chuckles": 9686,
      "cooper": 9687,
      "somet": 9688,
      "नुक": 9689,
      "रोग": 9690,
      "##ास": 9691,
      "##एक": 9692,
      "##atory": 9693,
      "##हीद": 9694,
      "##र्ख": 9695,
      "समेट": 9696,
      "discl": 9697,
      "रेखा": 9698,
      "documents": 9699,
      "possessed": 9700,
      "laughing": 9701,
      "execut": 9702,
      "mouths": 9703,
      "हकीम": 9704,
      "आँकड़ा": 9705,
[...]
